{
  "version": "1.0",
  "truncation": null,
  "padding": null,
  "added_tokens": [
    {
      "id": 0,
      "content": "[UNK]",
      "single_word": false,
      "lstrip": false,
      "rstrip": false,
      "normalized": false,
      "special": true
    },
    {
      "id": 1,
      "content": "[PAD]",
      "single_word": false,
      "lstrip": false,
      "rstrip": false,
      "normalized": false,
      "special": true
    },
    {
      "id": 2,
      "content": "[BOS]",
      "single_word": false,
      "lstrip": false,
      "rstrip": false,
      "normalized": false,
      "special": true
    },
    {
      "id": 3,
      "content": "[EOS]",
      "single_word": false,
      "lstrip": false,
      "rstrip": false,
      "normalized": false,
      "special": true
    },
    {
      "id": 4,
      "content": "<|endoftext|>",
      "single_word": false,
      "lstrip": false,
      "rstrip": false,
      "normalized": false,
      "special": true
    }
  ],
  "normalizer": null,
  "pre_tokenizer": {
    "type": "ByteLevel",
    "add_prefix_space": true,
    "trim_offsets": true,
    "use_regex": true
  },
  "post_processor": null,
  "decoder": {
    "type": "ByteLevel",
    "add_prefix_space": true,
    "trim_offsets": true,
    "use_regex": true
  },
  "model": {
    "type": "BPE",
    "dropout": null,
    "unk_token": "[UNK]",
    "continuing_subword_prefix": null,
    "end_of_word_suffix": null,
    "fuse_unk": false,
    "byte_fallback": false,
    "ignore_merges": false,
    "vocab": {
      "[UNK]": 0,
      "[PAD]": 1,
      "[BOS]": 2,
      "[EOS]": 3,
      "<|endoftext|>": 4,
      "!": 5,
      "\"": 6,
      "#": 7,
      "%": 8,
      "&": 9,
      "'": 10,
      "+": 11,
      ",": 12,
      "-": 13,
      ".": 14,
      "/": 15,
      "0": 16,
      "1": 17,
      "2": 18,
      "3": 19,
      "4": 20,
      "5": 21,
      "6": 22,
      "7": 23,
      "8": 24,
      "9": 25,
      ":": 26,
      ";": 27,
      "<": 28,
      "=": 29,
      ">": 30,
      "?": 31,
      "@": 32,
      "A": 33,
      "B": 34,
      "C": 35,
      "D": 36,
      "E": 37,
      "F": 38,
      "G": 39,
      "H": 40,
      "I": 41,
      "J": 42,
      "K": 43,
      "L": 44,
      "M": 45,
      "N": 46,
      "O": 47,
      "P": 48,
      "Q": 49,
      "R": 50,
      "S": 51,
      "T": 52,
      "U": 53,
      "V": 54,
      "W": 55,
      "X": 56,
      "Y": 57,
      "Z": 58,
      "[": 59,
      "\\": 60,
      "]": 61,
      "^": 62,
      "_": 63,
      "`": 64,
      "a": 65,
      "b": 66,
      "c": 67,
      "d": 68,
      "e": 69,
      "f": 70,
      "g": 71,
      "h": 72,
      "i": 73,
      "j": 74,
      "k": 75,
      "l": 76,
      "m": 77,
      "n": 78,
      "o": 79,
      "p": 80,
      "q": 81,
      "r": 82,
      "s": 83,
      "t": 84,
      "u": 85,
      "v": 86,
      "w": 87,
      "x": 88,
      "y": 89,
      "z": 90,
      "{": 91,
      "|": 92,
      "}": 93,
      "~": 94,
      "¡": 95,
      "¢": 96,
      "£": 97,
      "¤": 98,
      "¥": 99,
      "¦": 100,
      "§": 101,
      "¨": 102,
      "©": 103,
      "ª": 104,
      "«": 105,
      "¬": 106,
      "®": 107,
      "¯": 108,
      "°": 109,
      "±": 110,
      "²": 111,
      "³": 112,
      "´": 113,
      "µ": 114,
      "¶": 115,
      "·": 116,
      "¸": 117,
      "¹": 118,
      "º": 119,
      "»": 120,
      "¼": 121,
      "½": 122,
      "¾": 123,
      "¿": 124,
      "Â": 125,
      "Ã": 126,
      "Ä": 127,
      "Å": 128,
      "È": 129,
      "Ê": 130,
      "Ì": 131,
      "Î": 132,
      "Ï": 133,
      "Ð": 134,
      "Ñ": 135,
      "á": 136,
      "â": 137,
      "Ċ": 138,
      "č": 139,
      "Ġ": 140,
      "Ģ": 141,
      "ģ": 142,
      "Ĥ": 143,
      "ĥ": 144,
      "Ħ": 145,
      "ħ": 146,
      "Ĩ": 147,
      "ĩ": 148,
      "Ī": 149,
      "ī": 150,
      "Ĭ": 151,
      "Į": 152,
      "į": 153,
      "İ": 154,
      "ı": 155,
      "Ĳ": 156,
      "ĳ": 157,
      "Ĵ": 158,
      "ĵ": 159,
      "Ķ": 160,
      "ķ": 161,
      "ĸ": 162,
      "Ĺ": 163,
      "ĺ": 164,
      "Ļ": 165,
      "ļ": 166,
      "Ľ": 167,
      "ľ": 168,
      "Ŀ": 169,
      "ŀ": 170,
      "Ł": 171,
      "ł": 172,
      "Ń": 173,
      "ie": 174,
      "ÅĤ": 175,
      "Ġp": 176,
      "Ġs": 177,
      "ÄĻ": 178,
      "Ġw": 179,
      "Ġn": 180,
      "Äħ": 181,
      "Ġz": 182,
      "rz": 183,
      "cz": 184,
      "Å¼": 185,
      "Ġt": 186,
      "ch": 187,
      "čĊ": 188,
      "Ġm": 189,
      "Ġd": 190,
      "ÅĽ": 191,
      "Ã³": 192,
      "aÅĤ": 193,
      "sz": 194,
      "iÄĻ": 195,
      "Ġo": 196,
      "Ġj": 197,
      "Ġi": 198,
      "Ġk": 199,
      "ow": 200,
      "ra": 201,
      "st": 202,
      "dz": 203,
      "Ġna": 204,
      "ni": 205,
      "nie": 206,
      "Ġb": 207,
      "Ġpo": 208,
      "Äĩ": 209,
      "ro": 210,
      "go": 211,
      "rze": 212,
      "Ġnie": 213,
      "ci": 214,
      "ĠsiÄĻ": 215,
      "ak": 216,
      "li": 217,
      "le": 218,
      "em": 219,
      "na": 220,
      "Ġza": 221,
      "ÅĤa": 222,
      "ny": 223,
      "Ġdo": 224,
      "Ġje": 225,
      "rzy": 226,
      "ne": 227,
      "ar": 228,
      "ÅĤo": 229,
      "Å¼e": 230,
      "wi": 231,
      "am": 232,
      "Ġu": 233,
      "Ġa": 234,
      "Ġg": 235,
      "ka": 236,
      "Ġc": 237,
      "ko": 238,
      "czy": 239,
      "ki": 240,
      "Ġwy": 241,
      "wa": 242,
      "dy": 243,
      "dzi": 244,
      "Äħc": 245,
      "Ġprze": 246,
      "la": 247,
      "no": 248,
      "ry": 249,
      "Ã³w": 250,
      "cie": 251,
      "ĠP": 252,
      "ta": 253,
      "by": 254,
      "szy": 255,
      "Ġto": 256,
      "mi": 257,
      "dzie": 258,
      "Ġjak": 259,
      "ej": 260,
      "wo": 261,
      "ĠÅ¼e": 262,
      "Ġby": 263,
      "da": 264,
      "ego": 265,
      "ĠW": 266,
      "ÅĽci": 267,
      "Ġod": 268,
      "Ġpa": 269,
      "ĠN": 270,
      "Ġch": 271,
      "Ġprzy": 272,
      "tÃ³": 273,
      "kie": 274,
      "Ġty": 275,
      "po": 276,
      "nÄħ": 277,
      "Ġro": 278,
      "ÅĦ": 279,
      "Ġmi": 280,
      "aÅĤa": 281,
      "Ġmo": 282,
      "cze": 283,
      "ĠA": 284,
      "re": 285,
      "Ġko": 286,
      "ÅĤy": 287,
      "aj": 288,
      "Ġst": 289,
      "Ġsz": 290,
      "ty": 291,
      "nia": 292,
      "Ġni": 293,
      "wie": 294,
      "ru": 295,
      "bie": 296,
      "ĠktÃ³": 297,
      "owa": 298,
      "ĠT": 299,
      "si": 300,
      "Å¼y": 301,
      "owie": 302,
      "te": 303,
      "ĠÅĽ": 304,
      "Ġcz": 305,
      "je": 306,
      "ĠS": 307,
      "ĠC": 308,
      "mie": 309,
      "ĠM": 310,
      "Ġtak": 311,
      "Ġwie": 312,
      "ĠJ": 313,
      "ku": 314,
      "en": 315,
      "rÃ³": 316,
      "ĠB": 317,
      "ad": 318,
      "lu": 319,
      "Ġco": 320,
      "to": 321,
      "Ġdz": 322,
      "ce": 323,
      "ÅĤu": 324,
      "raz": 325,
      "ĠZ": 326,
      "ÅĽÄĩ": 327,
      "âĢ": 328,
      "Ġgo": 329,
      "Ġroz": 330,
      "my": 331,
      "sta": 332,
      "sze": 333,
      "wy": 334,
      "as": 335,
      "bi": 336,
      "Ġpod": 337,
      "Ġjest": 338,
      "ĠK": 339,
      "ĠO": 340,
      "ĠD": 341,
      "owi": 342,
      "ma": 343,
      "Ġwi": 344,
      "aÅĤy": 345,
      "Ġob": 346,
      "cy": 347,
      "er": 348,
      "Åº": 349,
      "ami": 350,
      "nych": 351,
      "Ġmu": 352,
      "ĠNie": 353,
      "an": 354,
      "at": 355,
      "pi": 356,
      "rÄĻ": 357,
      "ja": 358,
      "jÄħc": 359,
      "uÅ¼": 360,
      "ca": 361,
      "aÅĤo": 362,
      "nym": 363,
      "lo": 364,
      "pie": 365,
      "Ġte": 366,
      "ob": 367,
      "ĠI": 368,
      "tu": 369,
      "gi": 370,
      "jÄħ": 371,
      "zy": 372,
      "nÄĻ": 373,
      "ĠPo": 374,
      "nego": 375,
      "mu": 376,
      "Ġczy": 377,
      "Ġjed": 378,
      "nej": 379,
      "Ġsp": 380,
      "Ġmnie": 381,
      "Ġbo": 382,
      "Ġwszy": 383,
      "Ġdzie": 384,
      "Ġci": 385,
      "Ġlu": 386,
      "ĠmÃ³": 387,
      "cho": 388,
      "Ġspo": 389,
      "ga": 390,
      "ez": 391,
      "ba": 392,
      "do": 393,
      "Ġle": 394,
      "ĠG": 395,
      "Ġwo": 396,
      "ĠjuÅ¼": 397,
      "Ġma": 398,
      "bo": 399,
      "Ġpra": 400,
      "ĠktÃ³ry": 401,
      "Ġka": 402,
      "Ġf": 403,
      "Ġale": 404,
      "Ġrze": 405,
      "Äħd": 406,
      "Ġwszyst": 407,
      "Ġsam": 408,
      "we": 409,
      "ĠR": 410,
      "lko": 411,
      "mo": 412,
      "ĠâĢ": 413,
      "ski": 414,
      "Ġpan": 415,
      "ĠâĢŀ": 416,
      "ĠÅ¼": 417,
      "ĠÅ¼y": 418,
      "âĢĿ": 419,
      "ÅĤem": 420,
      "Ġgdy": 421,
      "niej": 422,
      "Ġra": 423,
      "Ġmie": 424,
      "aÅĤem": 425,
      "Ġze": 426,
      "Ġjej": 427,
      "Ġda": 428,
      "Ġjego": 429,
      "Ġpie": 430,
      "owy": 431,
      "Ġsta": 432,
      "szcze": 433,
      "jÄĻ": 434,
      "Ġtym": 435,
      "pa": 436,
      "Ġdla": 437,
      "Ġtylko": 438,
      "ĠL": 439,
      "kÄĻ": 440,
      "cha": 441,
      "skie": 442,
      "ajÄħc": 443,
      "or": 444,
      "Ġnaj": 445,
      "czÄĻ": 446,
      "ÅĽli": 447,
      "Ġin": 448,
      "Ġh": 449,
      "Ġso": 450,
      "waÅĤ": 451,
      "ĠNa": 452,
      "Ġprzez": 453,
      "iÄĻc": 454,
      "Ġcie": 455,
      "Ġsk": 456,
      "sa": 457,
      "Ġprzed": 458,
      "Ġzna": 459,
      "Ġwz": 460,
      "Ġtego": 461,
      "tem": 462,
      "kÄħ": 463,
      "sza": 464,
      "Ġmy": 465,
      "ĠgÅĤ": 466,
      "nÄħÅĤ": 467,
      "du": 468,
      "kiem": 469,
      "ĠbyÅĤo": 470,
      "ÅĽcie": 471,
      "Ġja": 472,
      "Ġdzi": 473,
      "ek": 474,
      "eÅĤ": 475,
      "noÅĽci": 476,
      "ĠbÄĻ": 477,
      "Ġpro": 478,
      "ĠÅ": 479,
      "niu": 480,
      "Ġsie": 481,
      "Ġku": 482,
      "ĠbyÅĤ": 483,
      "czo": 484,
      "Ġsobie": 485,
      "Ġpowie": 486,
      "Ġbez": 487,
      "Ġjeszcze": 488,
      "Ġno": 489,
      "sto": 490,
      "Ġtu": 491,
      "Ġswo": 492,
      "dzo": 493,
      "cia": 494,
      "owo": 495,
      "sy": 496,
      "lÄĻ": 497,
      "wszy": 498,
      "il": 499,
      "im": 500,
      "Ġraz": 501,
      "za": 502,
      "ĠktÃ³r": 503,
      "sty": 504,
      "ĠJe": 505,
      "ĠmÃ³wi": 506,
      "wia": 507,
      "ska": 508,
      "Ġbar": 509,
      "ĠH": 510,
      "ew": 511,
      "ĠrÄĻ": 512,
      "dziaÅĤ": 513,
      "Ġli": 514,
      "Ġkie": 515,
      "de": 516,
      "iÄĻk": 517,
      "Ġdu": 518,
      "Ã³ÅĤ": 519,
      "Ġzap": 520,
      "ĠAle": 521,
      "su": 522,
      "Äħg": 523,
      "Ġdob": 524,
      "ĠwÅĤa": 525,
      "ĠTo": 526,
      "Ġpi": 527,
      "Ġten": 528,
      "rzu": 529,
      "Ġich": 530,
      "Ġog": 531,
      "kÃ³w": 532,
      "ĠBo": 533,
      "Ġsto": 534,
      "cu": 535,
      "pu": 536,
      "Ġnad": 537,
      "Ġcho": 538,
      "Ġwe": 539,
      "ĠwiÄĻc": 540,
      "ĠmoÅ¼e": 541,
      "Ġtam": 542,
      "rza": 543,
      "ĠZa": 544,
      "Ã³j": 545,
      "Ġczas": 546,
      "niem": 547,
      "Ġchwi": 548,
      "al": 549,
      "ĠjÄħ": 550,
      "sie": 551,
      "siÄĻ": 552,
      "nio": 553,
      "so": 554,
      "ary": 555,
      "zu": 556,
      "dÄĻ": 557,
      "Ġpoz": 558,
      "cza": 559,
      "rÃ³w": 560,
      "Ġwiel": 561,
      "Ġla": 562,
      "czÄħ": 563,
      "gÅĤ": 564,
      "nu": 565,
      "Ġtej": 566,
      "czu": 567,
      "gie": 568,
      "Ġsw": 569,
      "emu": 570,
      "ĠsÄħ": 571,
      "dze": 572,
      "Ġpier": 573,
      "kÅĤ": 574,
      "pra": 575,
      "ĠJak": 576,
      "ĠÅĤa": 577,
      "ÅĤowie": 578,
      "Ġmog": 579,
      "nak": 580,
      "niÄĻ": 581,
      "Ġaby": 582,
      "ĠbÄĻdzie": 583,
      "ÅĽmy": 584,
      "ĠCh": 585,
      "Ġbi": 586,
      "ada": 587,
      "Ġpot": 588,
      "ĠÅĽwi": 589,
      "noÅĽÄĩ": 590,
      "Ġsi": 591,
      "Ġodp": 592,
      "sk": 593,
      "ÅĽl": 594,
      "Ġok": 595,
      "gu": 596,
      "fi": 597,
      "bu": 598,
      "Ġpow": 599,
      "ĠktÃ³re": 600,
      "ji": 601,
      "Ġpani": 602,
      "Ġnim": 603,
      "owaÅĤ": 604,
      "Ġdro": 605,
      "ajÄħ": 606,
      "spo": 607,
      "kÅĤa": 608,
      "wet": 609,
      "dÅĤ": 610,
      "dzy": 611,
      "Ã³r": 612,
      "Ġta": 613,
      "Ġdru": 614,
      "ony": 615,
      "Ġzie": 616,
      "ĠkrÃ³": 617,
      "ĠU": 618,
      "ĠcaÅĤ": 619,
      "ÅĽnie": 620,
      "ĠciÄĻ": 621,
      "ĠgÅĤo": 622,
      "zi": 623,
      "Ġpu": 624,
      "ĠCo": 625,
      "ym": 626,
      "ÄħÅ¼": 627,
      "Ġkiedy": 628,
      "Ġon": 629,
      "zna": 630,
      "owaÄĩ": 631,
      "ĠczÅĤowie": 632,
      "ĠTak": 633,
      "ĠsÅĤ": 634,
      "ĠbyÅĤa": 635,
      "Ġgdzie": 636,
      "ĠÅĽmie": 637,
      "rÃ³Å¼": 638,
      "Ġbardzo": 639,
      "szÄĻ": 640,
      "sko": 641,
      "kich": 642,
      "Ġsze": 643,
      "Ġnawet": 644,
      "Ġoczy": 645,
      "ĠsÅĤu": 646,
      "Ġop": 647,
      "ĠDo": 648,
      "Ġwszystko": 649,
      "cznie": 650,
      "Ġser": 651,
      "ĠCzy": 652,
      "ona": 653,
      "stÄĻ": 654,
      "ĠPrze": 655,
      "ĠÅ»": 656,
      "Ġwa": 657,
      "taÅĤ": 658,
      "ĠF": 659,
      "Ġani": 660,
      "ych": 661,
      "Ġnic": 662,
      "trzy": 663,
      "ich": 664,
      "ÅĦst": 665,
      "Å¼a": 666,
      "ĠbyÄĩ": 667,
      "chodzi": 668,
      "ĠÅĤ": 669,
      "ĠkaÅ¼": 670,
      "Ġbu": 671,
      "Ġru": 672,
      "Ġstra": 673,
      "ĠMo": 674,
      "sÅĤa": 675,
      "rowa": 676,
      "Ã³Å¼": 677,
      "Ġzn": 678,
      "ju": 679,
      "Ġjako": 680,
      "Ġjakie": 681,
      "Ġcze": 682,
      "dÅº": 683,
      "ĠJa": 684,
      "ĠmÅĤo": 685,
      "Ġstro": 686,
      "nik": 687,
      "rzÄĻ": 688,
      "Ġzaw": 689,
      "rÄħ": 690,
      "Ġteraz": 691,
      "waÄĩ": 692,
      "Ġnas": 693,
      "ĠdÅĤu": 694,
      "ĠteÅ¼": 695,
      "Ġre": 696,
      "dÄħ": 697,
      "el": 698,
      "ĠWy": 699,
      "chy": 700,
      "tÄħ": 701,
      "Ġpraw": 702,
      "ciÅĤ": 703,
      "Ġtrze": 704,
      "ost": 705,
      "Ġbra": 706,
      "eÅĽ": 707,
      "ĠzÅĤo": 708,
      "Ġpew": 709,
      "Ġoj": 710,
      "chu": 711,
      "pad": 712,
      "lÄħ": 713,
      "et": 714,
      "mia": 715,
      "Ġtych": 716,
      "Ġjednak": 717,
      "cji": 718,
      "on": 719,
      "szÄħ": 720,
      "czas": 721,
      "Ġba": 722,
      "Ġspra": 723,
      "rzÄħ": 724,
      "kim": 725,
      "Ã©": 726,
      "ĠBy": 727,
      "ĠmiaÅĤ": 728,
      "sÅĤ": 729,
      "ĠmÄĻ": 730,
      "ĠÅĽwie": 731,
      "Ġbie": 732,
      "Ġsu": 733,
      "âĢĿ.": 734,
      "peÅĤ": 735,
      "dni": 736,
      "wiÄĻ": 737,
      "ĠE": 738,
      "bli": 739,
      "ĠRo": 740,
      "Ġzda": 741,
      "Ġsy": 742,
      "Ġsiebie": 743,
      "miÄĻ": 744,
      "Ġniej": 745,
      "Ġdale": 746,
      "bym": 747,
      "ecz": 748,
      "Ġtwa": 749,
      "ĠtÄĻ": 750,
      "nÄĻÅĤa": 751,
      "ran": 752,
      "Ġde": 753,
      "owe": 754,
      "rÃ³d": 755,
      "Ġzro": 756,
      "ĠPrzy": 757,
      "Ġniego": 758,
      "szedÅĤ": 759,
      "gdy": 760,
      "js": 761,
      "ĠrzekÅĤ": 762,
      "tnie": 763,
      "war": 764,
      "bra": 765,
      "ĠPa": 766,
      "Ġry": 767,
      "nem": 768,
      "Ġzd": 769,
      "ĠmoÅ¼": 770,
      "ĠCz": 771,
      "resz": 772,
      "co": 773,
      "Ġmam": 774,
      "Ã³d": 775,
      "dzÄħc": 776,
      "ĠGdy": 777,
      "Ġkobie": 778,
      "ĠWi": 779,
      "Ġgro": 780,
      "Ġkto": 781,
      "Ġmusi": 782,
      "tÃ³w": 783,
      "liÅĽmy": 784,
      "cÄĻ": 785,
      "Ġe": 786,
      "ĠzaÅĽ": 787,
      "czyÅĤ": 788,
      "ia": 789,
      "ĠchÅĤo": 790,
      "dziÅĤ": 791,
      "Ġlub": 792,
      "Ġal": 793,
      "ĠsÅĤo": 794,
      "Ġnich": 795,
      "dnie": 796,
      "zie": 797,
      "Ġkrzy": 798,
      "Ġchci": 799,
      "dzieÄĩ": 800,
      "Ġmiejs": 801,
      "Ġtrzy": 802,
      "ĠcoÅĽ": 803,
      "owÄħ": 804,
      "dziÄĩ": 805,
      "Ġpowi": 806,
      "ĠktÃ³ra": 807,
      "Ġws": 808,
      "ÅĽcia": 809,
      "Ġkil": 810,
      "Ġjakby": 811,
      "ĠÅĽwiat": 812,
      "Ġwszystkie": 813,
      "two": 814,
      "skiego": 815,
      "Ġtwo": 816,
      "tych": 817,
      "Ġzak": 818,
      "ĠKa": 819,
      "szcz": 820,
      "Ġchwili": 821,
      "py": 822,
      "cÄħ": 823,
      "waÅĤa": 824,
      "ĠmiÄĻ": 825,
      "ÅĽciÄħ": 826,
      "Ġdomu": 827,
      "Ġludzi": 828,
      "Ġszy": 829,
      "trz": 830,
      "gÄĻ": 831,
      "stawi": 832,
      "ciu": 833,
      "ĠSz": 834,
      "ĠiÅ¼": 835,
      "ÅĽmie": 836,
      "ĠpiÄĻk": 837,
      "Ġim": 838,
      "nÄħÄĩ": 839,
      "strze": 840,
      "ĠmyÅĽl": 841,
      "kach": 842,
      "Ġkra": 843,
      "sÅĤu": 844,
      "ĠKo": 845,
      "czyÄĩ": 846,
      "ĠaÅ¼": 847,
      "daÄĩ": 848,
      "tni": 849,
      "szych": 850,
      "ĠMi": 851,
      "Ġsko": 852,
      "Ġstar": 853,
      "Ġlecz": 854,
      "ĠWie": 855,
      "wÄħ": 856,
      "dem": 857,
      "stÄĻp": 858,
      "one": 859,
      "ĠÅ¼eby": 860,
      "szej": 861,
      "ter": 862,
      "ĠMa": 863,
      "ÅĤÄħ": 864,
      "ĠniÅ¼": 865,
      "Ġtakie": 866,
      "stu": 867,
      "Ġniez": 868,
      "Ġrzeczy": 869,
      "ec": 870,
      "Ġtro": 871,
      "ĠmiÅĤo": 872,
      "Ġtru": 873,
      "tÄĻ": 874,
      "ĠNi": 875,
      "dziej": 876,
      "stÄħ": 877,
      "tek": 878,
      "szego": 879,
      "Ġzawsze": 880,
      "Ġodpowie": 881,
      "waÅ¼": 882,
      "ĠmÃ³gÅĤ": 883,
      "kt": 884,
      "ĠOd": 885,
      "owu": 886,
      "Ġczu": 887,
      "Ġjaki": 888,
      "dza": 889,
      "ĠszczÄĻ": 890,
      "wiÄħ": 891,
      "dli": 892,
      "Ġtra": 893,
      "Ġsza": 894,
      "Ġnam": 895,
      "Ġwar": 896,
      "kami": 897,
      "nymi": 898,
      "prze": 899,
      "scy": 900,
      "tego": 901,
      "sem": 902,
      "dzÄħ": 903,
      "sÅĤy": 904,
      "ĠrÃ³w": 905,
      "um": 906,
      "ĠÅĽmier": 907,
      "Ġalbo": 908,
      "Ã³l": 909,
      "ste": 910,
      "Å¼eli": 911,
      "szka": 912,
      "ĠmÃ³j": 913,
      "ĠktÃ³rych": 914,
      "Ġwp": 915,
      "czne": 916,
      "ur": 917,
      "dzÄĻ": 918,
      "Ġspos": 919,
      "rod": 920,
      "Ġzw": 921,
      "ĠÅ¼ad": 922,
      "ĠcaÅĤy": 923,
      "Ġpoko": 924,
      "niÄĩ": 925,
      "nt": 926,
      "ciÄħg": 927,
      "Ġzu": 928,
      "Ġpotem": 929,
      "praw": 930,
      "wym": 931,
      "jem": 932,
      "jej": 933,
      "ĠwiÄĻcej": 934,
      "Ġpana": 935,
      "cÃ³w": 936,
      "Ġlo": 937,
      "kry": 938,
      "Ġpodob": 939,
      "wych": 940,
      "gÄħ": 941,
      "owej": 942,
      "Ġdobrze": 943,
      "ĠniÄħ": 944,
      "skiej": 945,
      "ĠwÅĤas": 946,
      "ĠPan": 947,
      "nek": 948,
      "ĠTy": 949,
      "om": 950,
      "Ġpy": 951,
      "Ġzwy": 952,
      "Ġmat": 953,
      "niÄħ": 954,
      "skich": 955,
      "ĠkoÅĦ": 956,
      "owÄĻ": 957,
      "Ġnigdy": 958,
      "Ġczar": 959,
      "ĠczÄĻ": 960,
      "niÅĤ": 961,
      "ciw": 962,
      "ĠÅļ": 963,
      "Ġgdyby": 964,
      "Ġosta": 965,
      "chem": 966,
      "ĠmoÅ¼na": 967,
      "Ġprzyja": 968,
      "gle": 969,
      "Ġzam": 970,
      "ĠsÅĤy": 971,
      "tor": 972,
      "sku": 973,
      "ĠktÃ³rej": 974,
      "owych": 975,
      "Ġsamo": 976,
      "Ġksi": 977,
      "Ġdaw": 978,
      "Å¼yÅĤ": 979,
      "Ġdwa": 980,
      "rzaÅĤ": 981,
      "Ġsob": 982,
      "Ġona": 983,
      "ĠksiÄĻ": 984,
      "ĠczÅĤowiek": 985,
      "gra": 986,
      "Ġpanie": 987,
      "Ã³b": 988,
      "ĠchoÄĩ": 989,
      "chÄĻ": 990,
      "ĠmyÅĽli": 991,
      "ĠktÃ³rego": 992,
      "Ġszcze": 993,
      "Ġchce": 994,
      "rÃ³ci": 995,
      "ĠciÄħg": 996,
      "ud": 997,
      "Ġdzieci": 998,
      "Ġdrz": 999,
      "nowi": 1000,
      "Ġmia": 1001,
      "arÅĤ": 1002,
      "rac": 1003,
      "ÅĤam": 1004,
      "ĠpeÅĤ": 1005,
      "Ġkro": 1006,
      "kiej": 1007,
      "wu": 1008,
      "ĠgÃ³": 1009,
      "Ġznaj": 1010,
      "Ġrzu": 1011,
      "amiÄĻ": 1012,
      "men": 1013,
      "Ġczym": 1014,
      "tk": 1015,
      "szczÄĻ": 1016,
      "wem": 1017,
      "Äħce": 1018,
      "trze": 1019,
      "ĠrÃ³Å¼": 1020,
      "Ġkar": 1021,
      "Ġpar": 1022,
      "Ġ1": 1023,
      "kiego": 1024,
      "Ġpowo": 1025,
      "ok": 1026,
      "ĠTe": 1027,
      "lach": 1028,
      "Ã³g": 1029,
      "Äħt": 1030,
      "szym": 1031,
      "Ġwol": 1032,
      "ĠpÅĤa": 1033,
      "ĠbyÅĤy": 1034,
      "Ġwszystkich": 1035,
      "Ġzawo": 1036,
      "Ġziemi": 1037,
      "Ġwidzi": 1038,
      "ĠgÅĤÄĻ": 1039,
      "ĠÅ¼ycie": 1040,
      "cieÅ¼": 1041,
      "ĠsobÄħ": 1042,
      "Ġce": 1043,
      "Ġjeden": 1044,
      "Ġzo": 1045,
      "Ġznowu": 1046,
      "Ġzaraz": 1047,
      "szu": 1048,
      "Ġfi": 1049,
      "Ġrobi": 1050,
      "ĠktÃ³rym": 1051,
      "ÅĤÄĻ": 1052,
      "ĠwÅĤaÅĽnie": 1053,
      "ciÄĻ": 1054,
      "ĠchÅĤop": 1055,
      "laz": 1056,
      "lÄħd": 1057,
      "pom": 1058,
      "ĠkaÅ¼dy": 1059,
      "Ġposta": 1060,
      "ĠsÅĤowa": 1061,
      "Ġos": 1062,
      "Ġlat": 1063,
      "raÅĤ": 1064,
      "ajem": 1065,
      "Ġzrobi": 1066,
      "stwo": 1067,
      "naÅĤ": 1068,
      "niec": 1069,
      "os": 1070,
      "czej": 1071,
      "kaz": 1072,
      "Ġwsze": 1073,
      "amy": 1074,
      "wiÅĤ": 1075,
      "Ġar": 1076,
      "Ġdy": 1077,
      "ĠpiÄĻ": 1078,
      "Ã©j": 1079,
      "wÄĻ": 1080,
      "Ġtrzeba": 1081,
      "ri": 1082,
      "ÅĽrÃ³d": 1083,
      "Ġot": 1084,
      "Ġjestem": 1085,
      "ĠÅ¼ycia": 1086,
      "Ġniech": 1087,
      "Ġgodzi": 1088,
      "waÅĤo": 1089,
      "Ġdrzwi": 1090,
      "ĠNo": 1091,
      "oba": 1092,
      "nd": 1093,
      "Ġwoj": 1094,
      "Ġgra": 1095,
      "Ġdziew": 1096,
      "nosi": 1097,
      "ono": 1098,
      "miaÅĤ": 1099,
      "Ġzdo": 1100,
      "czego": 1101,
      "owarzy": 1102,
      "ĠzupeÅĤ": 1103,
      "ĠuÅĽmie": 1104,
      "ÅĽle": 1105,
      "nku": 1106,
      "ĠmiÄĻdzy": 1107,
      "Ġswego": 1108,
      "ĠmaÅĤ": 1109,
      "czÄħÅĤ": 1110,
      "ĠNiech": 1111,
      "cem": 1112,
      "Ġ.": 1113,
      "szÅĤo": 1114,
      "rzyÅĤ": 1115,
      "ĠpÃ³ÅĤ": 1116,
      "Ġciem": 1117,
      "Ġpierw": 1118,
      "Ġniepo": 1119,
      "waÅĤy": 1120,
      "Ġwyda": 1121,
      "ĠSt": 1122,
      "ĠJest": 1123,
      "Ġnale": 1124,
      "Ġpotrze": 1125,
      "pli": 1126,
      "reszcie": 1127,
      "aje": 1128,
      "chaÄĩ": 1129,
      "ĠWiÄĻc": 1130,
      "owaÅĤa": 1131,
      "Ġmar": 1132,
      "oÅĤ": 1133,
      "cja": 1134,
      "Ġmil": 1135,
      "Ġmoje": 1136,
      "Ġspoj": 1137,
      "nika": 1138,
      "ado": 1139,
      "noÅĽciÄħ": 1140,
      "Ġkilka": 1141,
      "ĠÅ»e": 1142,
      "chaÅĤ": 1143,
      "wali": 1144,
      "tedy": 1145,
      "Ġdalej": 1146,
      "Ġkr": 1147,
      "rom": 1148,
      "tel": 1149,
      "Ġme": 1150,
      "âĢĿ,": 1151,
      "ĠpÃ³": 1152,
      "ĠktÃ³rÄħ": 1153,
      "ÅĤe": 1154,
      "owiem": 1155,
      "koj": 1156,
      "owego": 1157,
      "Ġdrze": 1158,
      "daÅĤ": 1159,
      "Ġwyg": 1160,
      "ĠSta": 1161,
      "ĠjeÅĽli": 1162,
      "czny": 1163,
      "rwo": 1164,
      "czÄħc": 1165,
      "ĠLecz": 1166,
      "Ġzm": 1167,
      "Ġgru": 1168,
      "Ġnau": 1169,
      "ĠrÄĻce": 1170,
      "siad": 1171,
      "ĠdziÅĽ": 1172,
      "stro": 1173,
      "myÅĽl": 1174,
      "Ġdrugi": 1175,
      "skim": 1176,
      "ĠktÃ³rzy": 1177,
      "wier": 1178,
      "Å¼ej": 1179,
      "Ġszu": 1180,
      "niaÅĤ": 1181,
      "nÃ³w": 1182,
      "Ġsa": 1183,
      "ĠchciaÅĤ": 1184,
      "szÅĤa": 1185,
      "ĠwÅĤo": 1186,
      "Ġwiem": 1187,
      "nki": 1188,
      "ot": 1189,
      "piero": 1190,
      "pe": 1191,
      "Ġczego": 1192,
      "leg": 1193,
      "jm": 1194,
      "amie": 1195,
      "knÄħÅĤ": 1196,
      "Ġludzie": 1197,
      "stwa": 1198,
      "ĠWszy": 1199,
      "taj": 1200,
      "Ġjedno": 1201,
      "ach": 1202,
      "Ġprzeciw": 1203,
      "ĠciÄĻÅ¼": 1204,
      "Ġciebie": 1205,
      "Ġoko": 1206,
      "Ġstrasz": 1207,
      "ĠÅĤo": 1208,
      "Ġzost": 1209,
      "Ġczasu": 1210,
      "zd": 1211,
      "Ġsmu": 1212,
      "miast": 1213,
      "Ġtowarzy": 1214,
      "Ġwszyscy": 1215,
      "ĠjÄĻ": 1216,
      "Ġludz": 1217,
      "ĠksiÄħÅ¼": 1218,
      "dzia": 1219,
      "dziaÅĤa": 1220,
      "ĠsposÃ³b": 1221,
      "Ġbla": 1222,
      "Ġdrugie": 1223,
      "ĠdzieÅĦ": 1224,
      "Ġzmie": 1225,
      "Ġuro": 1226,
      "ze": 1227,
      "ĠkrÃ³l": 1228,
      "Ġkon": 1229,
      "rew": 1230,
      "byt": 1231,
      "ĠWo": 1232,
      "Ġdom": 1233,
      "ĠLi": 1234,
      "Ġnaz": 1235,
      "ÅĤaÅĤ": 1236,
      "Ġzg": 1237,
      "Ġjas": 1238,
      "Ġjedy": 1239,
      "owym": 1240,
      "Å¼yÄĩ": 1241,
      "Ġbro": 1242,
      "ĠmÄĻÅ¼": 1243,
      "Ġdwo": 1244,
      "Ġpierwszy": 1245,
      "ĠtÅĤu": 1246,
      "stÄħpi": 1247,
      "Ġdziw": 1248,
      "szcza": 1249,
      "Ġpog": 1250,
      "Ġdr": 1251,
      "Ġswoje": 1252,
      "Ġrodzi": 1253,
      "czyna": 1254,
      "Ġdnia": 1255,
      "me": 1256,
      "Ġucie": 1257,
      "ĠÅĽci": 1258,
      "kaÄĩ": 1259,
      "ÅĽwi": 1260,
      "wajÄħc": 1261,
      "Ġzapy": 1262,
      "ĠKie": 1263,
      "Ġwst": 1264,
      "ut": 1265,
      "ĠPod": 1266,
      "ĠmÃ³wiÅĤ": 1267,
      "Ġumie": 1268,
      "ĠtakÅ¼e": 1269,
      "se": 1270,
      "od": 1271,
      "Ġfa": 1272,
      "ĠgÅĤu": 1273,
      "Ġrazem": 1274,
      "ĠpowiedziaÅĤ": 1275,
      "ÅĦstwa": 1276,
      "ĠgÅĤowÄĻ": 1277,
      "Ġwyp": 1278,
      "ĠMar": 1279,
      "Ġuczy": 1280,
      "ĠsÅĤoÅĦ": 1281,
      "siÅĤ": 1282,
      "ii": 1283,
      "Ġtaki": 1284,
      "wej": 1285,
      "ĠsÅĤa": 1286,
      "szaÅĤ": 1287,
      "rzÄħd": 1288,
      "Ġlek": 1289,
      "ĠDla": 1290,
      "Ġoto": 1291,
      "Ġusta": 1292,
      "ĠczÅĤowieka": 1293,
      "czaj": 1294,
      "Ġzwie": 1295,
      "Ġrozu": 1296,
      "kol": 1297,
      "owiada": 1298,
      "lem": 1299,
      "nicy": 1300,
      "gnie": 1301,
      "ĠRoz": 1302,
      "bÄĻ": 1303,
      "cznych": 1304,
      "Ġuczu": 1305,
      "ciÄĩ": 1306,
      "ral": 1307,
      "Ġzach": 1308,
      "Ġtyle": 1309,
      "Ġprawie": 1310,
      "Äħcy": 1311,
      "ĠÅĽwiÄĻ": 1312,
      "ĠTu": 1313,
      "rem": 1314,
      "Ġpomo": 1315,
      "Ġwyso": 1316,
      "Ġisto": 1317,
      "Ġnagle": 1318,
      "ĠpamiÄĻ": 1319,
      "wÃ³": 1320,
      "ciec": 1321,
      "tku": 1322,
      "Ġga": 1323,
      "Ġwzg": 1324,
      "ĠJed": 1325,
      "sÃ³w": 1326,
      "ĠÅĽpie": 1327,
      "ĠzupeÅĤnie": 1328,
      "ĠMu": 1329,
      "skÄħ": 1330,
      "Ġzb": 1331,
      "ÅĦstwo": 1332,
      "raÅ¼": 1333,
      "in": 1334,
      "ĠBÃ³g": 1335,
      "iÄħ": 1336,
      "Ġwszel": 1337,
      "ĠmajÄħ": 1338,
      "Ġwido": 1339,
      "Ġcoraz": 1340,
      "liÅĤ": 1341,
      "rabi": 1342,
      "Ġdziec": 1343,
      "Ġwas": 1344,
      "wiÄĩ": 1345,
      "wego": 1346,
      "Ġtwarz": 1347,
      "owania": 1348,
      "pat": 1349,
      "ĠmiaÅĤa": 1350,
      "Ġl": 1351,
      "Ġwiele": 1352,
      "ĠLe": 1353,
      "ĠjakÄħ": 1354,
      "lej": 1355,
      "ha": 1356,
      "kaÅĤ": 1357,
      "raÅº": 1358,
      "ciÄħ": 1359,
      "ĠchwilÄĻ": 1360,
      "Ġuwa": 1361,
      "piej": 1362,
      "ÅĽni": 1363,
      "tym": 1364,
      "ĠKiedy": 1365,
      "raÅ¼e": 1366,
      "czki": 1367,
      "lan": 1368,
      "dzenia": 1369,
      "Ġsztu": 1370,
      "Ġserce": 1371,
      "tej": 1372,
      "Ġwiecz": 1373,
      "ĠLu": 1374,
      "ĠdÅĤugo": 1375,
      "Ġuli": 1376,
      "jÄħcy": 1377,
      "Ġbli": 1378,
      "Ġnoc": 1379,
      "nach": 1380,
      "ĠRa": 1381,
      "tki": 1382,
      "tach": 1383,
      "ĠrÄĻkÄĻ": 1384,
      "sia": 1385,
      "Ġmieszka": 1386,
      "Ġstary": 1387,
      "ĠpÅĤo": 1388,
      "lÄħda": 1389,
      "Ġskrzy": 1390,
      "stra": 1391,
      "ĠÅĽwia": 1392,
      "aka": 1393,
      "Ġzgo": 1394,
      "Ġile": 1395,
      "wiek": 1396,
      "ĠJuÅ¼": 1397,
      "zo": 1398,
      "ĠBa": 1399,
      "dÃ³w": 1400,
      "ĠpÃ³Åº": 1401,
      "ĠjeÅ¼eli": 1402,
      "Ġwsp": 1403,
      "rÃ³ciÅĤ": 1404,
      "ĠjakiÅĽ": 1405,
      "Ġcier": 1406,
      "Ġwtedy": 1407,
      "szczy": 1408,
      "nka": 1409,
      "cale": 1410,
      "Ġmoja": 1411,
      "ĠcaÅĤÄħ": 1412,
      "kolwiek": 1413,
      "biera": 1414,
      "kona": 1415,
      "ĠwÅĽrÃ³d": 1416,
      "ĠtrochÄĻ": 1417,
      "ĠÅ»y": 1418,
      "Ġswej": 1419,
      "ĠmnÄħ": 1420,
      "Ġwal": 1421,
      "bieg": 1422,
      "ĠznÃ³w": 1423,
      "Ġodda": 1424,
      "Ġchy": 1425,
      "Ġum": 1426,
      "gna": 1427,
      "ĠÅº": 1428,
      "ĠgÅĤos": 1429,
      "kro": 1430,
      "Ġszep": 1431,
      "bÄħ": 1432,
      "ĠPro": 1433,
      "ĠnieszczÄĻ": 1434,
      "czenie": 1435,
      "Ġpoli": 1436,
      "Ġbardziej": 1437,
      "ĠAn": 1438,
      "Ġmoc": 1439,
      "Ġzoba": 1440,
      "Ġrzecz": 1441,
      "Ġzag": 1442,
      "Ġnikt": 1443,
      "Ġniep": 1444,
      "rek": 1445,
      "ĠzaczÄĻ": 1446,
      "nic": 1447,
      "ĠmogÄĻ": 1448,
      "rzyÄĩ": 1449,
      "niach": 1450,
      "Ġpanu": 1451,
      "Ġstrony": 1452,
      "ĠÅĽwiecie": 1453,
      "Ġnatu": 1454,
      "Ġdni": 1455,
      "Ġpol": 1456,
      "Ġtwarzy": 1457,
      "dowa": 1458,
      "Ġkamie": 1459,
      "Ġcha": 1460,
      "Ġrado": 1461,
      "ĠswojÄħ": 1462,
      "ĠPol": 1463,
      "Ġbrze": 1464,
      "ciel": 1465,
      "Ġobo": 1466,
      "ĠprzecieÅ¼": 1467,
      "Ġgnie": 1468,
      "ĠrÃ³wnie": 1469,
      "Ġdopiero": 1470,
      "Ġofi": 1471,
      "cjÄĻ": 1472,
      "Ġnimi": 1473,
      "Ġpyta": 1474,
      "ĠMoÅ¼e": 1475,
      "Ã³sÅĤ": 1476,
      "Ġwszystkim": 1477,
      "fa": 1478,
      "ĠčĊ": 1479,
      "dny": 1480,
      "Ġprzyj": 1481,
      "szczo": 1482,
      "tka": 1483,
      "fe": 1484,
      "Ġpal": 1485,
      "Ġpokoju": 1486,
      "Ġnocy": 1487,
      "Ġhi": 1488,
      "ĠbÄĻdÄĻ": 1489,
      "Ġswoich": 1490,
      "staÄĩ": 1491,
      "dne": 1492,
      "Ġmniej": 1493,
      "Ġwyraz": 1494,
      "tere": 1495,
      "ĠDa": 1496,
      "Ġtem": 1497,
      "Ã³wczas": 1498,
      "ĠpoÅĽ": 1499,
      "Ġwzro": 1500,
      "Ġspokoj": 1501,
      "adomo": 1502,
      "ĠÅģ": 1503,
      "Ġgar": 1504,
      "tÄħd": 1505,
      "Ġszyb": 1506,
      "Ġkla": 1507,
      "Ġpatrzy": 1508,
      "un": 1509,
      "Ġfor": 1510,
      "Ġuj": 1511,
      "ĠAl": 1512,
      "Ġor": 1513,
      "ĠKto": 1514,
      "tne": 1515,
      "Ġwam": 1516,
      "ĠWszyst": 1517,
      "ĠCho": 1518,
      "cznym": 1519,
      "kÅĤo": 1520,
      "jÄħce": 1521,
      "ĠcÃ³Å¼": 1522,
      "cach": 1523,
      "Ġrozm": 1524,
      "Ġbowiem": 1525,
      "ÅĽwiad": 1526,
      "tow": 1527,
      "towa": 1528,
      "ĠJu": 1529,
      "dno": 1530,
      "Ġsama": 1531,
      "Ġtajem": 1532,
      "Ġpiersi": 1533,
      "ĠgdyÅ¼": 1534,
      "Ġobu": 1535,
      "Ġinnych": 1536,
      "mina": 1537,
      "ĠwÄĻ": 1538,
      "woÅĽci": 1539,
      "Ġdrogi": 1540,
      "Ġwcale": 1541,
      "Ġrobo": 1542,
      "kow": 1543,
      "resztÄħ": 1544,
      "ĠPi": 1545,
      "ĠprÃ³": 1546,
      "ĠpÅĤy": 1547,
      "kle": 1548,
      "Ġwreszcie": 1549,
      "Ġopu": 1550,
      "Ġkocha": 1551,
      "ĠprÄĻ": 1552,
      "Ġwyk": 1553,
      "Ġgor": 1554,
      "Ġhu": 1555,
      "sztaÅĤ": 1556,
      "ÅĦczy": 1557,
      "onÄħ": 1558,
      "Ġgrze": 1559,
      "Ġak": 1560,
      "Ġszlach": 1561,
      "Ġpatrz": 1562,
      "ÄħdÅº": 1563,
      "maÅĤ": 1564,
      "Ġkoch": 1565,
      "ĠpotÄĻ": 1566,
      "staÅĤ": 1567,
      "Ġpowa": 1568,
      "ciem": 1569,
      "ĠDzi": 1570,
      "Ġniby": 1571,
      "raca": 1572,
      "ĠmogÅĤa": 1573,
      "Ġszko": 1574,
      "ĠÅĽwiata": 1575,
      "Ġobraz": 1576,
      "br": 1577,
      "ĠgÅĤÄĻbo": 1578,
      "nienia": 1579,
      "ĠpÄĻ": 1580,
      "Ġnap": 1581,
      "czenia": 1582,
      "ĠbÅĤy": 1583,
      "cznÄħ": 1584,
      "Ġki": 1585,
      "mal": 1586,
      "rach": 1587,
      "ier": 1588,
      "Ġswoim": 1589,
      "szÄħc": 1590,
      "taÄĩ": 1591,
      "ĠwziÄħ": 1592,
      "raj": 1593,
      "Ġmasz": 1594,
      "Ġzale": 1595,
      "ĠleÅ¼": 1596,
      "ĠwiÄĻk": 1597,
      "Ġserca": 1598,
      "czach": 1599,
      "Ġup": 1600,
      "ĠdÅĤo": 1601,
      "sÅĤo": 1602,
      "Ġcu": 1603,
      "ĠOn": 1604,
      "ĠMy": 1605,
      "dÅĤa": 1606,
      "cznej": 1607,
      "Ġist": 1608,
      "ĠgÅĤowy": 1609,
      "ĠCÃ³Å¼": 1610,
      "Ġduszy": 1611,
      "ĠstaÅĤ": 1612,
      "ĠzaczÄħÅĤ": 1613,
      "ĠGdzie": 1614,
      "aju": 1615,
      "ĠÅĽrod": 1616,
      "Ġrazy": 1617,
      "Ġkonie": 1618,
      "rÃ³t": 1619,
      "ent": 1620,
      "Ġdwie": 1621,
      "Ġprzyby": 1622,
      "rzeÄĩ": 1623,
      "ĠDob": 1624,
      "ĠAch": 1625,
      "ĠDzie": 1626,
      "rak": 1627,
      "ĠpowiedzieÄĩ": 1628,
      "caÅĤ": 1629,
      "ĠCi": 1630,
      "wÃ³r": 1631,
      "Ġtemu": 1632,
      "aki": 1633,
      "Å¼u": 1634,
      "Ġr": 1635,
      "ĠTen": 1636,
      "Ġpor": 1637,
      "niÃ³sÅĤ": 1638,
      "ĠmÃ³wiÄĩ": 1639,
      "ĠsÅĤuÅ¼": 1640,
      "mio": 1641,
      "ÅĤad": 1642,
      "ĠdoÅĽÄĩ": 1643,
      "Ġbyli": 1644,
      "Ġpoch": 1645,
      "trzyma": 1646,
      "cki": 1647,
      "Ġsil": 1648,
      "Ġojciec": 1649,
      "pÄĻ": 1650,
      "rami": 1651,
      "Ġojca": 1652,
      "Ġzbyt": 1653,
      "dziÅĤa": 1654,
      "Ġoba": 1655,
      "mÃ³": 1656,
      "Ġwier": 1657,
      "Ġcy": 1658,
      "kÅĤad": 1659,
      "nÄĻÅĤy": 1660,
      "tom": 1661,
      "kÃ³j": 1662,
      "dwie": 1663,
      "jÄħcych": 1664,
      "tar": 1665,
      "ĠkaÅ¼d": 1666,
      "twa": 1667,
      "ĠTa": 1668,
      "ĠBoÅ¼e": 1669,
      "dziÄĻ": 1670,
      "taÅĤa": 1671,
      "ÅĽla": 1672,
      "Ġkry": 1673,
      "szyÅĤ": 1674,
      "ĠmieÄĩ": 1675,
      "Ġrozumie": 1676,
      "ten": 1677,
      "Ġobie": 1678,
      "Ġwspo": 1679,
      "czaÅĤ": 1680,
      "Ġjednego": 1681,
      "ĠkrÃ³le": 1682,
      "ĠswÃ³j": 1683,
      "Ġgospo": 1684,
      "Ġspa": 1685,
      "ĠmÃ³w": 1686,
      "ĠzawoÅĤaÅĤ": 1687,
      "dÅĤu": 1688,
      "tny": 1689,
      "Ġzbli": 1690,
      "ÅĤym": 1691,
      "ÅĤych": 1692,
      "wÃ³j": 1693,
      "Ġzabi": 1694,
      "Ġzim": 1695,
      "ĠcaÅĤe": 1696,
      "Ġude": 1697,
      "man": 1698,
      "Ġsen": 1699,
      "ĠKtÃ³": 1700,
      "czasem": 1701,
      "wÃ³ch": 1702,
      "ron": 1703,
      "ÅĦski": 1704,
      "Ġdobry": 1705,
      "dzieli": 1706,
      "ĠgÅĤowÄħ": 1707,
      "woÅĽÄĩ": 1708,
      "lony": 1709,
      "ĠTeraz": 1710,
      "Ġnieu": 1711,
      "Ġrozma": 1712,
      "Å¼d": 1713,
      "Ġkilku": 1714,
      "szli": 1715,
      "endo": 1716,
      "Ġpos": 1717,
      "Ġnadzie": 1718,
      "Ġweso": 1719,
      "ĠPra": 1720,
      "Ġznalaz": 1721,
      "dziaÅĤem": 1722,
      "miona": 1723,
      "ĠByÅĤ": 1724,
      "rzÃ³d": 1725,
      "ge": 1726,
      "Ġjakim": 1727,
      "ĠWa": 1728,
      "szo": 1729,
      "be": 1730,
      "ĠwÅĤaÅĽci": 1731,
      "Ġzapa": 1732,
      "ĠÃ³w": 1733,
      "Ġczo": 1734,
      "ber": 1735,
      "ĠBi": 1736,
      "owanie": 1737,
      "ĠmiÅĤoÅĽci": 1738,
      "Ġkom": 1739,
      "Ġwypad": 1740,
      "czem": 1741,
      "ciÄħÅ¼": 1742,
      "Ġzamie": 1743,
      "rzenia": 1744,
      "Ġstrze": 1745,
      "Ġdlatego": 1746,
      "ama": 1747,
      "tery": 1748,
      "ĠBoga": 1749,
      "ĠmÅĤody": 1750,
      "ĠgÅĤosem": 1751,
      "giem": 1752,
      "ĠWe": 1753,
      "Ġsku": 1754,
      "ĠÅĽmierci": 1755,
      "Ġmego": 1756,
      "niejsze": 1757,
      "ĠSa": 1758,
      "star": 1759,
      "zumie": 1760,
      "ĠstaÅĤo": 1761,
      "gli": 1762,
      "Ġode": 1763,
      "Ġszero": 1764,
      "lep": 1765,
      "ĠszczÄĻÅĽli": 1766,
      "ĠgÄĻ": 1767,
      "czna": 1768,
      "Ġzau": 1769,
      "Ġlepiej": 1770,
      "rowi": 1771,
      "szem": 1772,
      "kra": 1773,
      "ciaÅ¼": 1774,
      "xt": 1775,
      "Ġpozna": 1776,
      "wiÄĻk": 1777,
      "Ġmojej": 1778,
      "ĠcÃ³r": 1779,
      "Äħcych": 1780,
      "Ġzapom": 1781,
      "Ġrozpa": 1782,
      "gÅĤo": 1783,
      "Ġmimo": 1784,
      "fte": 1785,
      "ĠktoÅĽ": 1786,
      "Ġspy": 1787,
      "Ġkobiety": 1788,
      "ĠdwÃ³ch": 1789,
      "czek": 1790,
      "Ġ<": 1791,
      "ĠuÅĽmiech": 1792,
      "ĠpoÅĤo": 1793,
      "ĠrzekÅĤa": 1794,
      "ÅĤÃ³": 1795,
      "siada": 1796,
      "|>": 1797,
      "endofte": 1798,
      "Ġ<|": 1799,
      "endoftext": 1800,
      "Ġjednej": 1801,
      "Ġpe": 1802,
      "szak": 1803,
      "Ġpla": 1804,
      "ĠkoÅĽci": 1805,
      "stÄĻpu": 1806,
      "Ġwielki": 1807,
      "ĠjakieÅĽ": 1808,
      "ĠczÄĻsto": 1809,
      "dna": 1810,
      "Ġznak": 1811,
      "ĠnaleÅ¼y": 1812,
      "Ġnieco": 1813,
      "ĠwidziaÅĤ": 1814,
      "siÄħc": 1815,
      "Ġswe": 1816,
      "pro": 1817,
      "ĠjesteÅĽ": 1818,
      "Ġkwi": 1819,
      "Ġdok": 1820,
      "Ġprawdzi": 1821,
      "obec": 1822,
      "Ġostatni": 1823,
      "lnie": 1824,
      "Ġskar": 1825,
      "ĠpÃ³Åºniej": 1826,
      "ĠJeÅĽli": 1827,
      "Ġswojej": 1828,
      "Å¼Äħ": 1829,
      "Ġucz": 1830,
      "ĠmaÅĤy": 1831,
      "tra": 1832,
      "dob": 1833,
      "Ġoni": 1834,
      "rywa": 1835,
      "Ġczasem": 1836,
      "Ġkole": 1837,
      "jÄħÅĤ": 1838,
      "now": 1839,
      "Ġjednym": 1840,
      "tna": 1841,
      "Ġnapi": 1842,
      "ĠNaj": 1843,
      "Ġdziewczy": 1844,
      "Ġsprze": 1845,
      "Ġszczeg": 1846,
      "Ġczerwo": 1847,
      "ĠmÄĻÅ¼czy": 1848,
      "ĠgÃ³ry": 1849,
      "ĠFran": 1850,
      "kowi": 1851,
      "ĠodparÅĤ": 1852,
      "ĠÅ¼oÅĤ": 1853,
      "czka": 1854,
      "chodzÄħc": 1855,
      "Ġha": 1856,
      "zm": 1857,
      "Ġprowa": 1858,
      "Ġge": 1859,
      "wal": 1860,
      "Ġlist": 1861,
      "Ġoka": 1862,
      "bez": 1863,
      "wiedli": 1864,
      "ĠÅĽnie": 1865,
      "nne": 1866,
      "Ġpole": 1867,
      "Ġswych": 1868,
      "Ġzamk": 1869,
      "nami": 1870,
      "mysÅĤ": 1871,
      "jego": 1872,
      "kli": 1873,
      "atu": 1874,
      "Ġtutaj": 1875,
      "adaÅĤ": 1876,
      "ĠbiaÅĤ": 1877,
      "ĠmiÅĤoÅĽÄĩ": 1878,
      "wiÅĽcie": 1879,
      "ĠswÄħ": 1880,
      "brzy": 1881,
      "Ġjaka": 1882,
      "aru": 1883,
      "Ġinne": 1884,
      "wiaÅĤ": 1885,
      "cznego": 1886,
      "Ġpre": 1887,
      "czony": 1888,
      "mÄĻ": 1889,
      "czyÅĤa": 1890,
      "nÄĻÅĤo": 1891,
      "Ġkrew": 1892,
      "!âĢĿ": 1893,
      "rop": 1894,
      "ĠpoczÄħ": 1895,
      "Ġwielkie": 1896,
      "Ġidzie": 1897,
      "zaÅĤ": 1898,
      "Ġmiasta": 1899,
      "and": 1900,
      "ciÅĤa": 1901,
      "ĠpÃ³j": 1902,
      "stanie": 1903,
      "Ġple": 1904,
      "Ġryce": 1905,
      "ĠziemiÄĻ": 1906,
      "Ġniedo": 1907,
      "Ġpotra": 1908,
      "Ġnazy": 1909,
      "Ġau": 1910,
      "ĠOj": 1911,
      "nikÃ³w": 1912,
      "dle": 1913,
      "niewaÅ¼": 1914,
      "Ġoby": 1915,
      "Ġrozko": 1916,
      "Å¼o": 1917,
      "cznoÅĽci": 1918,
      "biÅĤ": 1919,
      "czym": 1920,
      "nny": 1921,
      "ĠbÄĻdÄħ": 1922,
      "nk": 1923,
      "ĠdrogÄĻ": 1924,
      "Ġmiejsce": 1925,
      "ĠdaÅĤ": 1926,
      "ĠdÅº": 1927,
      "Ġol": 1928,
      "ĠjÄĻzy": 1929,
      "Ġroku": 1930,
      "tychmiast": 1931,
      "niejszy": 1932,
      "Ġust": 1933,
      "chi": 1934,
      "Åºni": 1935,
      "ziÄĻ": 1936,
      "ĠMÃ³": 1937,
      "dr": 1938,
      "nii": 1939,
      "bezpie": 1940,
      "pita": 1941,
      "cami": 1942,
      "Ġogrom": 1943,
      "aÅĤu": 1944,
      "ĠHe": 1945,
      "ĠÅĽcia": 1946,
      "siÄħ": 1947,
      "liÄĩ": 1948,
      "Ġtedy": 1949,
      "okra": 1950,
      "Ġdwu": 1951,
      "us": 1952,
      "Ġtakim": 1953,
      "jcie": 1954,
      "mier": 1955,
      "wol": 1956,
      "najm": 1957,
      "ĠBar": 1958,
      "ĠwiÄĻ": 1959,
      "Ġwyj": 1960,
      "Ġchodzi": 1961,
      "io": 1962,
      "prowa": 1963,
      "ĠTam": 1964,
      "Ġboga": 1965,
      "ĠkaÅ¼dym": 1966,
      "ĠwzglÄĻ": 1967,
      "ĠgÅĤoÅĽ": 1968,
      "Ġstanowi": 1969,
      "ĠÅĽmierÄĩ": 1970,
      "Ġwiat": 1971,
      "gÃ³w": 1972,
      "nienie": 1973,
      "rwa": 1974,
      "Ġzja": 1975,
      "ĠrÄħ": 1976,
      "bar": 1977,
      "Ġszybko": 1978,
      "ĠSpo": 1979,
      "rzenie": 1980,
      "Ġmiejscu": 1981,
      "ĠGo": 1982,
      "usz": 1983,
      "Ġska": 1984,
      "byÅĽ": 1985,
      "wiaÄĩ": 1986,
      "ĠodpowiedziaÅĤ": 1987,
      "niÅĤa": 1988,
      "ĠwÃ³wczas": 1989,
      "Ġprawda": 1990,
      "Ġotwar": 1991,
      "ĠmaÅĤo": 1992,
      "Ġoczach": 1993,
      "Ġobec": 1994,
      "ĠzapytaÅĤ": 1995,
      "daje": 1996,
      "nemu": 1997,
      "ĠV": 1998,
      "rost": 1999,
      "Ġniebo": 2000,
      "dzenie": 2001,
      "Ġpoka": 2002,
      "ĠZe": 2003,
      "ĠnastÄĻp": 2004,
      "ĠTym": 2005,
      "ĠchcÄĻ": 2006,
      "Ġzapew": 2007,
      "Ġosob": 2008,
      "Ġsamego": 2009,
      "najmniej": 2010,
      "ajÄħcy": 2011,
      "Ġprawo": 2012,
      "Ġpozwo": 2013,
      "dow": 2014,
      "Ġpisa": 2015,
      "ĠKu": 2016,
      "Ġotwo": 2017,
      "Ġwody": 2018,
      "Ġchyba": 2019,
      "ĠgwaÅĤ": 2020,
      "ĠPani": 2021,
      "Ġnasze": 2022,
      "Ġobok": 2023,
      "Ġrozpo": 2024,
      "Ġwiadomo": 2025,
      "ĠwciÄħÅ¼": 2026,
      "ÅĽciÅĤ": 2027,
      "Ġsiost": 2028,
      "Ġukry": 2029,
      "ĠmojÄħ": 2030,
      "cÄħc": 2031,
      "Ġrodz": 2032,
      "Ġniebie": 2033,
      "ĠsÅĤÃ³w": 2034,
      "naczej": 2035,
      "Ġrazie": 2036,
      "Ġpoprze": 2037,
      "ĠPat": 2038,
      "twie": 2039,
      "ĠÅ¼ar": 2040,
      "Ġdobro": 2041,
      "Ġmoim": 2042,
      "ÅĽwie": 2043,
      "ĠprzyszÅĤo": 2044,
      "ĠjednÄħ": 2045,
      "Ġmor": 2046,
      "ĠwraÅ¼e": 2047,
      "Ġkrze": 2048,
      "Ġsamym": 2049,
      "Ġniko": 2050,
      "jo": 2051,
      "ĠJeÅ¼eli": 2052,
      "ĠbÅĤo": 2053,
      "ĠstÃ³": 2054,
      "aku": 2055,
      "rzo": 2056,
      "Ġokoli": 2057,
      "Ġstanie": 2058,
      "ĠrÃ³wnieÅ¼": 2059,
      "Ã³z": 2060,
      "pada": 2061,
      "Ġtobie": 2062,
      "Ġpracy": 2063,
      "ĠuÅ¼y": 2064,
      "lar": 2065,
      "Ġnasz": 2066,
      "ĠchociaÅ¼": 2067,
      "Ġdowie": 2068,
      "ĠstronÄĻ": 2069,
      "Ġprzyjacie": 2070,
      "lone": 2071,
      "skiem": 2072,
      "ĠPotem": 2073,
      "ĠnÄĻ": 2074,
      "Ġnieprzy": 2075,
      "Ġwro": 2076,
      "Ġstosu": 2077,
      "pier": 2078,
      "ĠwiedziaÅĤ": 2079,
      "Ġpowiada": 2080,
      "Ġsposob": 2081,
      "Ġduch": 2082,
      "wajÄħ": 2083,
      "kowa": 2084,
      "ĠbÅĤÄĻ": 2085,
      "ĠmusiaÅĤ": 2086,
      "Ġzaba": 2087,
      "ĠwidaÄĩ": 2088,
      "ĠproszÄĻ": 2089,
      "ĠPrzez": 2090,
      "Ġodw": 2091,
      "Ġiz": 2092,
      "Ġczeka": 2093,
      "Ġporu": 2094,
      "Ġcieka": 2095,
      "Ġpom": 2096,
      "wiÄħza": 2097,
      "Ġdziecko": 2098,
      "Ġramiona": 2099,
      "jesz": 2100,
      "ĠkoÅĦcu": 2101,
      "Ġjakiego": 2102,
      "leÅº": 2103,
      "ĠwÄħt": 2104,
      "ĠsÅĤowo": 2105,
      "gÅĤa": 2106,
      "Ġho": 2107,
      "Ġbym": 2108,
      "Ġnogi": 2109,
      "Ġpozo": 2110,
      "Ġdoko": 2111,
      "liwie": 2112,
      "ajÄħce": 2113,
      "ĠchÄĻ": 2114,
      "Ġtakiego": 2115,
      "Ġzami": 2116,
      "tami": 2117,
      "Ġnatychmiast": 2118,
      "ĠdÅĤugi": 2119,
      "ĠwrÃ³ci": 2120,
      "Ġmiejsca": 2121,
      "lek": 2122,
      "mienia": 2123,
      "ĠksiÄħÅ¼ÄĻ": 2124,
      "Ġoso": 2125,
      "ĠgÅĤÃ³w": 2126,
      "tora": 2127,
      "ĠtÄħ": 2128,
      "ĠOto": 2129,
      "dar": 2130,
      "okrate": 2131,
      "ĠduÅ¼": 2132,
      "ĠPowie": 2133,
      "stor": 2134,
      "Ġgwia": 2135,
      "Ġjedynie": 2136,
      "ĠrÄĻkÄħ": 2137,
      "ĠSokrate": 2138,
      "ÅĽciÄĩ": 2139,
      "Ġkogo": 2140,
      "ĠOb": 2141,
      "Ġoczu": 2142,
      "Ġtajemni": 2143,
      "Ġnami": 2144,
      "ĠÅ¼oÅĤnie": 2145,
      "Ġczasie": 2146,
      "nawi": 2147,
      "Ġnieba": 2148,
      "gar": 2149,
      "ĠszczÄĻÅĽcie": 2150,
      "Ġbru": 2151,
      "rzem": 2152,
      "Ġcicho": 2153,
      "saÅĤ": 2154,
      "ĠcaÅĤej": 2155,
      "Ġwoli": 2156,
      "Ġwska": 2157,
      "Ġpoe": 2158,
      "Ġraczej": 2159,
      "Ġinnego": 2160,
      "nÄħc": 2161,
      "rzaÅĤa": 2162,
      "nnie": 2163,
      "Ġniezna": 2164,
      "nÄĻli": 2165,
      "ĠÅ¼yciu": 2166,
      "ĠÅĤÃ³Å¼": 2167,
      "Ġmieli": 2168,
      "dach": 2169,
      "ĠWszystko": 2170,
      "Ġdaleko": 2171,
      "Ġprzekona": 2172,
      "laÅĤ": 2173,
      "pÅĤa": 2174,
      "ĠwyciÄħg": 2175,
      "Ġwspom": 2176,
      "nad": 2177,
      "ĠpiÄĻÄĩ": 2178,
      "Ġlite": 2179,
      "ÅĤego": 2180,
      "Ġjakiej": 2181,
      "Ġniewi": 2182,
      "ĠtakÄħ": 2183,
      "stem": 2184,
      "siÄĻcy": 2185,
      "ĠTylko": 2186,
      "ĠparÄĻ": 2187,
      "Ġsch": 2188,
      "god": 2189,
      "Ġprzej": 2190,
      "ĠWar": 2191,
      "niami": 2192,
      "szek": 2193,
      "ĠTrze": 2194,
      "ĠmÅĤodzie": 2195,
      "pomina": 2196,
      "utro": 2197,
      "Å¼yÅĤa": 2198,
      "bry": 2199,
      "Ġdosko": 2200,
      "Ġcza": 2201,
      "Ġpoza": 2202,
      "Ġniespo": 2203,
      "lny": 2204,
      "gami": 2205,
      "nna": 2206,
      "Ġwys": 2207,
      "Ġopie": 2208,
      "czeniu": 2209,
      "Ġnaszych": 2210,
      "pia": 2211,
      "Ġzas": 2212,
      "ĠNic": 2213,
      "siaj": 2214,
      "ĠkrÃ³t": 2215,
      "orem": 2216,
      "Ġjedna": 2217,
      "tam": 2218,
      "Ġtakich": 2219,
      "cje": 2220,
      "sznie": 2221,
      "Ġdrodze": 2222,
      "ĠMe": 2223,
      "ĠzajÄĻ": 2224,
      "czone": 2225,
      "Ġintere": 2226,
      "Ġrazu": 2227,
      "akÃ³w": 2228,
      "Ġwyob": 2229,
      "ĠgÅĤowie": 2230,
      "ĠwielkÄħ": 2231,
      "siÄĩ": 2232,
      "Ġpozost": 2233,
      "ĠSam": 2234,
      "Ġstara": 2235,
      "owiÄħ": 2236,
      "Ġwspa": 2237,
      "Ġmoich": 2238,
      "ĠSÅĤu": 2239,
      "ĠGdyby": 2240,
      "Ġspostrze": 2241,
      "owali": 2242,
      "ĠdaÄĩ": 2243,
      "Ġmatka": 2244,
      "ĠPanie": 2245,
      "ĠwoÅĤa": 2246,
      "Ġzab": 2247,
      "Ġoczyma": 2248,
      "ĠmÄħd": 2249,
      "Ġskoro": 2250,
      "nim": 2251,
      "ĠpomyÅĽl": 2252,
      "ĠKrÃ³": 2253,
      "wiÅĤa": 2254,
      "net": 2255,
      "ĠusÅĤy": 2256,
      "Ġswym": 2257,
      "Ġpoda": 2258,
      "Ġjeno": 2259,
      "ĠÅĤu": 2260,
      "Ġ,": 2261,
      "cyj": 2262,
      "ĠJan": 2263,
      "ĠmÅĤod": 2264,
      "ĠkrÃ³la": 2265,
      "Ġchle": 2266,
      "czeÅĽnie": 2267,
      "rzch": 2268,
      "emi": 2269,
      "ĠkrÃ³lew": 2270,
      "Ġinaczej": 2271,
      "Ġwraz": 2272,
      "ĠHa": 2273,
      "Ġstop": 2274,
      "ĠgoÅĽci": 2275,
      "ĠuwaÅ¼": 2276,
      "ĠciÄħgle": 2277,
      "liwe": 2278,
      "rzyÅĤa": 2279,
      "Ġzmar": 2280,
      "Ġwobec": 2281,
      "iem": 2282,
      "tyka": 2283,
      "ĠÅ¼a": 2284,
      "Å¼na": 2285,
      "ĠzresztÄħ": 2286,
      "Ġkobieta": 2287,
      "Ġzbro": 2288,
      "Ġkola": 2289,
      "Ġzaj": 2290,
      "wyczaj": 2291,
      "Ġcud": 2292,
      "ĠRe": 2293,
      "Ġolbrzy": 2294,
      "Ġwyro": 2295,
      "Ġdziedzi": 2296,
      "niaÅĤy": 2297,
      "Ġzdra": 2298,
      "Ġdia": 2299,
      "dko": 2300,
      "Ġse": 2301,
      "ĠposÅĤu": 2302,
      "Ġznaczy": 2303,
      "lne": 2304,
      "ĠgÅĤÄĻbi": 2305,
      "szyÄĩ": 2306,
      "gaÄĩ": 2307,
      "ĠÅĽwiad": 2308,
      "ĠwÄħ": 2309,
      "ÅĦca": 2310,
      "ĠDu": 2311,
      "chodzÄħ": 2312,
      "ĠksztaÅĤ": 2313,
      "ĠporzÄħd": 2314,
      "ciÃ³ÅĤ": 2315,
      "prawdÄĻ": 2316,
      "Ġ2": 2317,
      "der": 2318,
      "stej": 2319,
      "ĠbiaÅĤy": 2320,
      "Ġzamy": 2321,
      "nni": 2322,
      "Ġone": 2323,
      "iÄĩ": 2324,
      "Ġprac": 2325,
      "Ġprzyjem": 2326,
      "owany": 2327,
      "gach": 2328,
      "ĠzwyciÄĻ": 2329,
      "Ġprzygo": 2330,
      "ĠcaÅĤa": 2331,
      "Ġfo": 2332,
      "Ġwzru": 2333,
      "Ġlep": 2334,
      "Ġodez": 2335,
      "ĠSk": 2336,
      "Ġdrugiej": 2337,
      "Ġstwo": 2338,
      "Ġzawi": 2339,
      "adÅĤ": 2340,
      "Ġfran": 2341,
      "Ġupo": 2342,
      "ĠpÅĤ": 2343,
      "Å¼nie": 2344,
      "miÄĻdzy": 2345,
      "ĠsiÅĤy": 2346,
      "Ġchwy": 2347,
      "rzas": 2348,
      "ner": 2349,
      "Ġkoniec": 2350,
      "stym": 2351,
      "Ġzdoby": 2352,
      "Ġwil": 2353,
      "jÄħÄĩ": 2354,
      "Ġnajm": 2355,
      "gro": 2356,
      "ĠkoÅĤo": 2357,
      "glÄħd": 2358,
      "Ġzdaje": 2359,
      "ĠiÅĽÄĩ": 2360,
      "ĠbÄħdÅº": 2361,
      "Ġtaka": 2362,
      "pÅĤy": 2363,
      "Ġlud": 2364,
      "ster": 2365,
      "Ġuda": 2366,
      "ĠpaÅĤa": 2367,
      "czkÄĻ": 2368,
      "Ġwyt": 2369,
      "ÅĦskiego": 2370,
      "Å¼aÅĤ": 2371,
      "Ġniebezpie": 2372,
      "Ġzdu": 2373,
      "ĠÅĽla": 2374,
      "ĠmÃ³wiÄħc": 2375,
      "Ġznie": 2376,
      "ĠokrÄĻ": 2377,
      "ĠwidzÄĻ": 2378,
      "Ġprag": 2379,
      "jeÅ¼d": 2380,
      "ĠZna": 2381,
      "Ġdar": 2382,
      "miaÅĤa": 2383,
      "toÅĽci": 2384,
      "rwaÅĤ": 2385,
      "che": 2386,
      "Ġopowiada": 2387,
      "Ġzni": 2388,
      "arÄĻ": 2389,
      "ĠÅĤÄħ": 2390,
      "cier": 2391,
      "jÄħcego": 2392,
      "ĠwdziÄĻ": 2393,
      "Ġpowro": 2394,
      "muje": 2395,
      "kazaÅĤ": 2396,
      "Ġniewie": 2397,
      "Ġubra": 2398,
      "nÄĻtrz": 2399,
      "Ġstru": 2400,
      "Ġsyn": 2401,
      "Ġchcesz": 2402,
      "let": 2403,
      "Ġwielu": 2404,
      "wyÅ¼": 2405,
      "Ġdzwo": 2406,
      "Ġprzyczy": 2407,
      "res": 2408,
      "Ġzako": 2409,
      "chaj": 2410,
      "kom": 2411,
      "Ġdobr": 2412,
      "Ġkolo": 2413,
      "Ġrozum": 2414,
      "dÅĤem": 2415,
      "Ġkraju": 2416,
      "ĠprÃ³Å¼": 2417,
      "ĠSy": 2418,
      "Ġchmu": 2419,
      "rÃ³b": 2420,
      "Ġsamej": 2421,
      "arÅĤa": 2422,
      "dÄħc": 2423,
      "Ġzatrzy": 2424,
      "rzej": 2425,
      "ĠÅĽle": 2426,
      "niÄĻty": 2427,
      "krÃ³t": 2428,
      "Ġdrzewa": 2429,
      "ĠÅ¼Äħ": 2430,
      "piÅĤ": 2431,
      "Ġobro": 2432,
      "Ġbole": 2433,
      "ĠBÄĻ": 2434,
      "for": 2435,
      "ĠdÅĤugie": 2436,
      "Ġzad": 2437,
      "ĠmogÄħ": 2438,
      "Ġwolno": 2439,
      "ĠgaÅĤ": 2440,
      "Ġzdr": 2441,
      "Ġwsty": 2442,
      "ĠZo": 2443,
      "ĠkÅĤa": 2444,
      "wania": 2445,
      "Ġsuk": 2446,
      "liz": 2447,
      "Ġpotrzeb": 2448,
      "wanie": 2449,
      "Ġzdzi": 2450,
      "Ġobej": 2451,
      "ĠÅ¼ywo": 2452,
      "Ġprzecie": 2453,
      "ĠSi": 2454,
      "ĠgÃ³rÄĻ": 2455,
      "Ġdzisiaj": 2456,
      "Ġmatki": 2457,
      "ako": 2458,
      "Ġmamy": 2459,
      "Ġpoje": 2460,
      "ĠpoÅĤu": 2461,
      "ĠgÃ³r": 2462,
      "ĠzostaÅĤ": 2463,
      "ciaÅĤ": 2464,
      "Ġwiesz": 2465,
      "ÅĤaÅĤa": 2466,
      "Ġdrob": 2467,
      "szko": 2468,
      "Ġstoi": 2469,
      "ÅĤÃ³w": 2470,
      "ĠdziesiÄĻ": 2471,
      "Ġarty": 2472,
      "Ġopi": 2473,
      "biÄĩ": 2474,
      "ĠWiel": 2475,
      "niaÅĤa": 2476,
      "ĠpoczÄĻ": 2477,
      "Ġper": 2478,
      "ĠpojÄĻ": 2479,
      "Ġposiada": 2480,
      "Ġresz": 2481,
      "bia": 2482,
      "Ġpotrafi": 2483,
      "Ġstu": 2484,
      "naÅĤa": 2485,
      "Ġtrwo": 2486,
      "snÄħÅĤ": 2487,
      "owski": 2488,
      "ĠRu": 2489,
      "ĠbyÅĤem": 2490,
      "ĠkrÄĻ": 2491,
      "Ġsre": 2492,
      "dzej": 2493,
      "Ġchu": 2494,
      "Ġtwoje": 2495,
      "Ġpil": 2496,
      "ĠbÄĻdziesz": 2497,
      "Ġmro": 2498,
      "ĠpieniÄħ": 2499,
      "sp": 2500,
      "Ġzauwa": 2501,
      "cj": 2502,
      "ĠwziÄĻ": 2503,
      "jemy": 2504,
      "Ġkrwi": 2505,
      "krÃ³tce": 2506,
      "Ġdoj": 2507,
      "ĠznaleÅº": 2508,
      "ĠzÅĤa": 2509,
      "Ġmru": 2510,
      "czoraj": 2511,
      "is": 2512,
      "siÄħt": 2513,
      "Ġhistor": 2514,
      "cznoÅĽÄĩ": 2515,
      "Ġpowta": 2516,
      "Ġpodczas": 2517,
      "waÅĤem": 2518,
      "czes": 2519,
      "padÅĤ": 2520,
      "Ġwybu": 2521,
      "ĠrÄĻku": 2522,
      "ĠcaÅĤym": 2523,
      "ĠtwÃ³j": 2524,
      "Ġspraw": 2525,
      "Å¼eby": 2526,
      "ĠsÅĤoÅĦce": 2527,
      "Ġsro": 2528,
      "chodziÅĤ": 2529,
      "ĠWÅĤa": 2530,
      "ĠskÄħd": 2531,
      "Ġdal": 2532,
      "ĠJeszcze": 2533,
      "Ġogro": 2534,
      "ĠpowtÃ³": 2535,
      "ĠnajwiÄĻk": 2536,
      "Ġsercu": 2537,
      "nien": 2538,
      "Ġdlaczego": 2539,
      "wiera": 2540,
      "czer": 2541,
      "ĠnaprzÃ³d": 2542,
      "tnÄħ": 2543,
      "Ġzostawi": 2544,
      "Ġkwiat": 2545,
      "Ġzi": 2546,
      "ÅĦskie": 2547,
      "chnÄħÅĤ": 2548,
      "ĠBe": 2549,
      "den": 2550,
      "ĠLa": 2551,
      "ĠkiedyÅĽ": 2552,
      "ĠchoÄĩby": 2553,
      "ajÄħcych": 2554,
      "Ġostro": 2555,
      "wiÄħz": 2556,
      "niÄĻte": 2557,
      "Ġnaszej": 2558,
      "ĠtobÄħ": 2559,
      "Ġlata": 2560,
      "Ġznajdu": 2561,
      "zuje": 2562,
      "Ã©m": 2563,
      "ĠByÅĤa": 2564,
      "ĠduÅ¼o": 2565,
      "Ġzbu": 2566,
      "Ġwej": 2567,
      "Ġkraj": 2568,
      "Ġmas": 2569,
      "Ġsyna": 2570,
      "ĠrobiÄĩ": 2571,
      "Ġstaro": 2572,
      "Ġniem": 2573,
      "ĠdziaÅĤa": 2574,
      "ĠsÅĤow": 2575,
      "Ġdra": 2576,
      "Ġkosz": 2577,
      "piec": 2578,
      "Ġpromie": 2579,
      "Ġwidok": 2580,
      "Ġzaczyna": 2581,
      "Ġobja": 2582,
      "Ġpragnie": 2583,
      "Ġnaro": 2584,
      "ĠskÅĤa": 2585,
      "ryz": 2586,
      "ktÃ³": 2587,
      "Ġnowe": 2588,
      "Ġzwa": 2589,
      "ĠdotÄħd": 2590,
      "ÅĽciu": 2591,
      "Ġhrabi": 2592,
      "ĠpoÅ¼y": 2593,
      "Ġwielkim": 2594,
      "Ġpogo": 2595,
      "Ġprawa": 2596,
      "ĠchciaÅĤa": 2597,
      "syÄĩ": 2598,
      "Ġopowie": 2599,
      "ĠMam": 2600,
      "ĠÅ¼Ã³ÅĤ": 2601,
      "ĠBie": 2602,
      "gaÅĤ": 2603,
      "ĠSÄħ": 2604,
      "Ġogni": 2605,
      "sami": 2606,
      "pan": 2607,
      "Ġistnie": 2608,
      "ĠSie": 2609,
      "ĠmÃ³wiÄĻ": 2610,
      "Ġuspo": 2611,
      "miaÅĤo": 2612,
      "cer": 2613,
      "Ġan": 2614,
      "Ġpt": 2615,
      "Ġpodej": 2616,
      "ÅĤoÅĽci": 2617,
      "ĠÅĤatwo": 2618,
      "ĠciaÅĤo": 2619,
      "ÅĦcu": 2620,
      "ĠmÄĻÅ¼a": 2621,
      "tnych": 2622,
      "ĠwiedzieÄĩ": 2623,
      "niony": 2624,
      "glÄħda": 2625,
      "ĠwspÃ³ÅĤ": 2626,
      "ĠkawaÅĤ": 2627,
      "Ġmodli": 2628,
      "dal": 2629,
      "Ġwieku": 2630,
      "ĠmuszÄĻ": 2631,
      "ĠzrobiÄĩ": 2632,
      "strzy": 2633,
      "dzili": 2634,
      "ĠimiÄĻ": 2635,
      "niejszych": 2636,
      "ĠRz": 2637,
      "Ġokru": 2638,
      "Ġkomi": 2639,
      "ĠstÄħd": 2640,
      "ĠgdzieÅĽ": 2641,
      "Ġwyrzu": 2642,
      "ĠwziÄħÅĤ": 2643,
      "Äħca": 2644,
      "ĠpaniÄħ": 2645,
      "sach": 2646,
      "siadÅĤ": 2647,
      "ĠzÄĻ": 2648,
      "tkiem": 2649,
      "ĠjakÄħÅĽ": 2650,
      "ĠPrzed": 2651,
      "Ġsur": 2652,
      "Ã³le": 2653,
      "Ġczyni": 2654,
      "piÄĩ": 2655,
      "ĠwpÅĤy": 2656,
      "Ġow": 2657,
      "Ġpowodu": 2658,
      "moÅ¼": 2659,
      "ĠHo": 2660,
      "owane": 2661,
      "stych": 2662,
      "ĠmyÅĽlaÅĤ": 2663,
      "Ġmaj": 2664,
      "ĠbÅĤa": 2665,
      "ĠponiewaÅ¼": 2666,
      "ĠprzyjaciÃ³ÅĤ": 2667,
      "Ġam": 2668,
      "nÄħÅĤem": 2669,
      "bio": 2670,
      "ĠJo": 2671,
      "kaj": 2672,
      "tÃ³Å¼": 2673,
      "tnym": 2674,
      "Ġwyd": 2675,
      "Ġmuzy": 2676,
      "ratu": 2677,
      "Ġpochy": 2678,
      "Ġpodnie": 2679,
      "Ġszczy": 2680,
      "Ġuko": 2681,
      "ĠmÃ³wiÅĤa": 2682,
      "ĠciaÅĤa": 2683,
      "ĠKaÅ¼": 2684,
      "Ġpocie": 2685,
      "zaÄĩ": 2686,
      "ĠnaprawdÄĻ": 2687,
      "ĠAr": 2688,
      "nij": 2689,
      "Ġide": 2690,
      "ĠTrzeba": 2691,
      "zny": 2692,
      "szki": 2693,
      "ĠpomiÄĻdzy": 2694,
      "ĠkÄħ": 2695,
      "ĠznalazÅĤ": 2696,
      "cjÄħ": 2697,
      "zwo": 2698,
      "ĠdziÄĻ": 2699,
      "stwie": 2700,
      "Ġnazwi": 2701,
      "ĠNiem": 2702,
      "waj": 2703,
      "ĠmogÅĤo": 2704,
      "nale": 2705,
      "Ġzosta": 2706,
      "Ġspu": 2707,
      "ĠsÅĤoÅĦca": 2708,
      "Ġkieru": 2709,
      "Ġcharak": 2710,
      "szÄĻdzie": 2711,
      "ÅĽlÄĻ": 2712,
      "ĠFi": 2713,
      "ĠPier": 2714,
      "ĠSte": 2715,
      "ĠSokrates": 2716,
      "ĠgwaÅĤtow": 2717,
      "Ġpocz": 2718,
      "Ġgu": 2719,
      "ĠKrzy": 2720,
      "Ġoraz": 2721,
      "ĠwyraÅº": 2722,
      "daw": 2723,
      "Ġinny": 2724,
      "Ġwysoko": 2725,
      "ĠpociÄħg": 2726,
      "Ġpara": 2727,
      "rob": 2728,
      "Ġsprawy": 2729,
      "Å¼ne": 2730,
      "ĠCy": 2731,
      "Ġwios": 2732,
      "Ġprzypad": 2733,
      "ĠmÄħÅ¼": 2734,
      "ĠMary": 2735,
      "Ġpanna": 2736,
      "ĠWarsza": 2737,
      "ĠwyglÄħd": 2738,
      "Åºnie": 2739,
      "ĠCzyÅ¼": 2740,
      "ura": 2741,
      "Ġnowo": 2742,
      "ĠobowiÄħ": 2743,
      "szony": 2744,
      "Ġspokojnie": 2745,
      "Ġnieraz": 2746,
      "Ġtry": 2747,
      "ĠPie": 2748,
      "ĠksiÄħ": 2749,
      "Ġost": 2750,
      "Ġgot": 2751,
      "Ġprostu": 2752,
      "Ġuprze": 2753,
      "dzisz": 2754,
      "paÅĤ": 2755,
      "powie": 2756,
      "ĠtysiÄĻcy": 2757,
      "maÄĩ": 2758,
      "nnych": 2759,
      "ĠJako": 2760,
      "ĠMie": 2761,
      "Ġpowiet": 2762,
      "Ġdow": 2763,
      "ng": 2764,
      "Ġbied": 2765,
      "ĠksiÄĻÅ¼y": 2766,
      "ĠrÄĻka": 2767,
      "dÅĤo": 2768,
      "ĠpodrÃ³Å¼": 2769,
      "lona": 2770,
      "Ġodrze": 2771,
      "ĠByÅĤo": 2772,
      "anu": 2773,
      "Ġwyb": 2774,
      "Ġpowoli": 2775,
      "ĠlÄĻ": 2776,
      "Ġwyma": 2777,
      "Ġjutro": 2778,
      "Ġcztery": 2779,
      "lami": 2780,
      "ĠstaÅĤa": 2781,
      "niosÅĤa": 2782,
      "Ġwszystkiego": 2783,
      "Ġdrzew": 2784,
      "Ġsami": 2785,
      "Ġdzieje": 2786,
      "Ġnaszego": 2787,
      "biegÅĤ": 2788,
      "Ġprzynajmniej": 2789,
      "toÅĽÄĩ": 2790,
      "Ġkapita": 2791,
      "ĠzaczÄĻÅĤa": 2792,
      "Ġmogli": 2793,
      "Ġscho": 2794,
      "Å¼enie": 2795,
      "liÅĤa": 2796,
      "Ġjeste": 2797,
      "Ġnu": 2798,
      "ĠrÄħk": 2799,
      "lozo": 2800,
      "ĠmyÅĽle": 2801,
      "ĠwyÅ¼": 2802,
      "dziesz": 2803,
      "Ġuwie": 2804,
      "roz": 2805,
      "Ġdobre": 2806,
      "kÅĤy": 2807,
      "Ġswobo": 2808,
      "ĠSko": 2809,
      "ĠJego": 2810,
      "Ġdobra": 2811,
      "niejsza": 2812,
      "giel": 2813,
      "tuje": 2814,
      "ĠDobrze": 2815,
      "Ġocz": 2816,
      "Ġspod": 2817,
      "ĠszczegÃ³l": 2818,
      "owaÅĤy": 2819,
      "Ġnienawi": 2820,
      "liwy": 2821,
      "Ġtar": 2822,
      "ÅĦczo": 2823,
      "wien": 2824,
      "ĠskÃ³": 2825,
      "ĠmiaÅĤem": 2826,
      "ĠHi": 2827,
      "ĠPraw": 2828,
      "nione": 2829,
      "ĠwspÃ³l": 2830,
      "ĠwyszedÅĤ": 2831,
      "Ġrad": 2832,
      "ĠpieniÄħdze": 2833,
      "ĠsÄħd": 2834,
      "Ġinnym": 2835,
      "ĠduszÄĻ": 2836,
      "tyw": 2837,
      "ĠczÄĻÅĽci": 2838,
      "ĠÅĤzy": 2839,
      "chnie": 2840,
      "Ġchwila": 2841,
      "Ġszuka": 2842,
      "szÅĤy": 2843,
      "ĠspeÅĤ": 2844,
      "ĠNad": 2845,
      "ĠtÄĻsk": 2846,
      "chÃ³w": 2847,
      "Ġlam": 2848,
      "jÄħcÄħ": 2849,
      "Ġwprost": 2850,
      "tnoÅĽci": 2851,
      "Ġnajlep": 2852,
      "Ġchor": 2853,
      "Ġzgi": 2854,
      "rym": 2855,
      "Ġjad": 2856,
      "ĠpoczÄħÅĤ": 2857,
      "ÅĤek": 2858,
      "Ġobi": 2859,
      "ĠÅĽli": 2860,
      "lika": 2861,
      "ĠJestem": 2862,
      "piÄĻ": 2863,
      "bardziej": 2864,
      "ĠSÅĤy": 2865,
      "Ġpoczu": 2866,
      "ĠPary": 2867,
      "ĠDlaczego": 2868,
      "ÅĤoÅĽÄĩ": 2869,
      "Ġstronie": 2870,
      "wio": 2871,
      "nar": 2872,
      "daj": 2873,
      "Ġulicy": 2874,
      "ĠÅºle": 2875,
      "ĠpatrzÄħc": 2876,
      "Ġpok": 2877,
      "Ġud": 2878,
      "jÄħcym": 2879,
      "rych": 2880,
      "Ġtrzech": 2881,
      "ĠÅ¼adnej": 2882,
      "cen": 2883,
      "qu": 2884,
      "Ġad": 2885,
      "ĠBogu": 2886,
      "ĠspytaÅĤ": 2887,
      "Ġtrud": 2888,
      "Ġnikogo": 2889,
      "Ġowo": 2890,
      "ieÅĦ": 2891,
      "Å¼ÄĻ": 2892,
      "logi": 2893,
      "Ġnajp": 2894,
      "Ġducha": 2895,
      "ÅĤaszcza": 2896,
      "Ġszar": 2897,
      "Ġwew": 2898,
      "Ġdaje": 2899,
      "ĠwidzieÄĩ": 2900,
      "dzony": 2901,
      "koÅĤo": 2902,
      "Ġprzede": 2903,
      "ĠzwierzÄĻ": 2904,
      "wiony": 2905,
      "ĠBu": 2906,
      "iÅĤ": 2907,
      "ĠkoÅĦca": 2908,
      "ĠTymczasem": 2909,
      "ĠwÅĤosy": 2910,
      "Ġniemal": 2911,
      "ho": 2912,
      "ĠÅ¼yÄĩ": 2913,
      "jÄħca": 2914,
      "Ġcno": 2915,
      "Ġokna": 2916,
      "ÅĦskiej": 2917,
      "Ġoz": 2918,
      "Ġhar": 2919,
      "piÄħ": 2920,
      "Ġcierpie": 2921,
      "Ġkrzyk": 2922,
      "twy": 2923,
      "towaÄĩ": 2924,
      "ÅĦcÃ³w": 2925,
      "Ġnauczy": 2926,
      "Ġtr": 2927,
      "Ġkur": 2928,
      "ÂŃ": 2929,
      "jechaÅĤ": 2930,
      "Ġwyja": 2931,
      "Ġpora": 2932,
      "Ġniewy": 2933,
      "Ġpapie": 2934,
      "ĠrÄĻki": 2935,
      "Ġgodziny": 2936,
      "gani": 2937,
      "Ġznik": 2938,
      "ti": 2939,
      "Ġgada": 2940,
      "ÅĦskich": 2941,
      "cenia": 2942,
      "Ġtymczasem": 2943,
      "Ġdum": 2944,
      "Ġpewno": 2945,
      "Ġodpowiedzi": 2946,
      "ĠProszÄĻ": 2947,
      "Ġobli": 2948,
      "rzad": 2949,
      "Ġkonia": 2950,
      "ĠkazaÅĤ": 2951,
      "Ġwywo": 2952,
      "ĠOczy": 2953,
      "ĠpieniÄĻ": 2954,
      "Ġniczym": 2955,
      "nÄħwszy": 2956,
      "Ġwydo": 2957,
      "wam": 2958,
      "Ġsprawiedli": 2959,
      "ĠMusi": 2960,
      "Ġdowo": 2961,
      "ĠprÄĻdko": 2962,
      "Ġprzestrze": 2963,
      "Ġpomy": 2964,
      "ĠposzedÅĤ": 2965,
      "ĠogÃ³le": 2966,
      "cieli": 2967,
      "anta": 2968,
      "roni": 2969,
      "Ġszk": 2970,
      "pliwie": 2971,
      "wala": 2972,
      "ĠgÅĤoÅĽno": 2973,
      "Ġwsi": 2974,
      "len": 2975,
      "Ġodwie": 2976,
      "aÅĤam": 2977,
      "ĠÅ¼aÅĤo": 2978,
      "Ġdosta": 2979,
      "lia": 2980,
      "Ġtrzym": 2981,
      "braÄĩ": 2982,
      "gen": 2983,
      "Ġwych": 2984,
      "Ġwyzna": 2985,
      "Ġmocno": 2986,
      "Ġcelu": 2987,
      "mieniem": 2988,
      "Ġsiedzi": 2989,
      "ĠbyÅĤoby": 2990,
      "prawdzie": 2991,
      "lenia": 2992,
      "Ġmiasto": 2993,
      "Ġojczy": 2994,
      "ckie": 2995,
      "Ġpokry": 2996,
      "ĠÅ¼adnego": 2997,
      "ĠtysiÄħc": 2998,
      "Ġprzypom": 2999,
      "Ġwczoraj": 3000,
      "mÃ³w": 3001,
      "ĠwiÄĻzie": 3002,
      "Ġodwa": 3003,
      "spoli": 3004,
      "ckiego": 3005,
      "Ġlubi": 3006,
      "Ġat": 3007,
      "Ġrozwi": 3008,
      "Ġtrudno": 3009,
      "Ġwielkiej": 3010,
      "tnej": 3011,
      "Ġrzeczywi": 3012,
      "Ġtakiej": 3013,
      "Ġocho": 3014,
      "Ġzer": 3015,
      "mieniu": 3016,
      "Ġfilozo": 3017,
      "ĠsÄĻ": 3018,
      "Ġtwar": 3019,
      "naÅĽcie": 3020,
      "Ġzapewne": 3021,
      "Ġkomu": 3022,
      "Ġprzedstawi": 3023,
      "Ġzrozumie": 3024,
      "ĠurzÄĻ": 3025,
      "dziemy": 3026,
      "Ġzwykle": 3027,
      "ĠOna": 3028,
      "Ġjakich": 3029,
      "Ġzadowo": 3030,
      "zg": 3031,
      "Ġpostanowi": 3032,
      "Ġzobaczy": 3033,
      "ĠmajÄħc": 3034,
      "ĠCzas": 3035,
      "ĠzasÅĤu": 3036,
      "Ġwieczo": 3037,
      "wicz": 3038,
      "Nie": 3039,
      "Ġdotk": 3040,
      "Ġzada": 3041,
      "Ġwielkiego": 3042,
      "lenie": 3043,
      "ĠOtÃ³Å¼": 3044,
      "Ġwykrzy": 3045,
      "ĠuÅĽmiechem": 3046,
      "arÃ³w": 3047,
      "ÅĤecz": 3048,
      "zdy": 3049,
      "ĠwraÅ¼enie": 3050,
      "ĠdosyÄĩ": 3051,
      "Ġpat": 3052,
      "ĠCie": 3053,
      "Ġgrz": 3054,
      "Ġszere": 3055,
      "Ġpubli": 3056,
      "Ġmej": 3057,
      "Ġnajbardziej": 3058,
      "Ġsame": 3059,
      "Ġrodzaju": 3060,
      "ĠPew": 3061,
      "Ġzech": 3062,
      "rÃ³j": 3063,
      "Å¼enia": 3064,
      "Ġdaj": 3065,
      "bor": 3066,
      "ĠpowiedziaÅĤa": 3067,
      "ton": 3068,
      "ĠjakaÅĽ": 3069,
      "Ġwierz": 3070,
      "ĠAÅ¼": 3071,
      "ĠÅ¼ona": 3072,
      "Ġpis": 3073,
      "ÅĤowa": 3074,
      "ĠwÅĽcie": 3075,
      "Ġprzypu": 3076,
      "Ġ18": 3077,
      "ĠdokoÅĤa": 3078,
      "zÃ³w": 3079,
      "cio": 3080,
      "ĠspojrzaÅĤ": 3081,
      "Ġkuch": 3082,
      "gan": 3083,
      "ĠjakoÅĽ": 3084,
      "kaÅĤa": 3085,
      "stwem": 3086,
      "ĠsiedziaÅĤ": 3087,
      "ĠprzyszedÅĤ": 3088,
      "Ġogar": 3089,
      "ĠczÄĻÅĽÄĩ": 3090,
      "Ġzwi": 3091,
      "Ġpop": 3092,
      "ĠszczÄĻÅĽcia": 3093,
      "Ġinni": 3094,
      "Ġkobiet": 3095,
      "Ġnieo": 3096,
      "Ġdiab": 3097,
      "Å¼ny": 3098,
      "staÅĤa": 3099,
      "sÅĤaw": 3100,
      "ĠrzuciÅĤ": 3101,
      "Ġszlachet": 3102,
      "ler": 3103,
      "ĠWtedy": 3104,
      "miaÅĤy": 3105,
      "ĠdoÅĽwiad": 3106,
      "Ġkorzy": 3107,
      "tniej": 3108,
      "ĠcaÅĤkiem": 3109,
      "ĠbÃ³": 3110,
      "Ġspi": 3111,
      "ĠfaÅĤ": 3112,
      "ĠobojÄĻ": 3113,
      "trzymaÄĩ": 3114,
      "ĠwszÄĻdzie": 3115,
      "Ġozna": 3116,
      "Ġzatem": 3117,
      "ĠMÃ³j": 3118,
      "Ġpanowie": 3119,
      "ĠWszyscy": 3120,
      "Ġrzad": 3121,
      "Ġchoro": 3122,
      "ĠÅĽwiatÅĤo": 3123,
      "tr": 3124,
      "bem": 3125,
      "legÅĤ": 3126,
      "Ġczer": 3127,
      "Ġdusza": 3128,
      "tan": 3129,
      "ĠpodniÃ³sÅĤ": 3130,
      "ĠMÅĤo": 3131,
      "ĠwidzÄħc": 3132,
      "rzec": 3133,
      "ĠAni": 3134,
      "dziesiÄħt": 3135,
      "ĠaÅ¼eby": 3136,
      "nnym": 3137,
      "ÄħcÄħ": 3138,
      "ĠszedÅĤ": 3139,
      "wan": 3140,
      "maty": 3141,
      "ĠJakÅ¼e": 3142,
      "Ġpsy": 3143,
      "ĠGe": 3144,
      "Ġsm": 3145,
      "Ġnajmniej": 3146,
      "szeni": 3147,
      "Ġzwyczaj": 3148,
      "Ġfrancu": 3149,
      "Ġocze": 3150,
      "Ġzasta": 3151,
      "Ġprosto": 3152,
      "lam": 3153,
      "Ġspotka": 3154,
      "ĠHen": 3155,
      "Ġwest": 3156,
      "strz": 3157,
      "zami": 3158,
      "Ġchrze": 3159,
      "ĠDe": 3160,
      "Ġkape": 3161,
      "mor": 3162,
      "chaÅĤa": 3163,
      "ĠdrÅ¼": 3164,
      "ĠobowiÄħz": 3165,
      "Ġsnu": 3166,
      "Ġspotk": 3167,
      "ĠzrobiÅĤ": 3168,
      "ĠÅ¼o": 3169,
      "Ġokrop": 3170,
      "Å¼ony": 3171,
      "Ġpowiem": 3172,
      "cka": 3173,
      "Ġdrugiego": 3174,
      "ĠstÃ³p": 3175,
      "Ġrozka": 3176,
      "Ġwoje": 3177,
      "ĠCze": 3178,
      "stÄħpiÅĤ": 3179,
      "Ġspad": 3180,
      "Ġzamiast": 3181,
      "Ġkochan": 3182,
      "owni": 3183,
      "ĠogieÅĦ": 3184,
      "Ġzat": 3185,
      "chali": 3186,
      "ĠÅ¼elaz": 3187,
      "raÄĩ": 3188,
      "Ġuka": 3189,
      "ĠAu": 3190,
      "Ġstaje": 3191,
      "Ġpowietrze": 3192,
      "Ġwiatr": 3193,
      "Ġoch": 3194,
      "rzeniem": 3195,
      "ĠzapÅĤa": 3196,
      "Ġpotrzeba": 3197,
      "ĠEu": 3198,
      "ĠÅ¼yje": 3199,
      "ĠtuÅ¼": 3200,
      "ĠjakÅ¼e": 3201,
      "jÄħcej": 3202,
      "Ġmater": 3203,
      "ĠprzeszÅĤo": 3204,
      "Ġzmu": 3205,
      "ĠnaleÅ¼": 3206,
      "wer": 3207,
      "koju": 3208,
      "Ġponad": 3209,
      "ĠBez": 3210,
      "ĠdodaÅĤ": 3211,
      "Ġrano": 3212,
      "Ġmili": 3213,
      "Ġspodzie": 3214,
      "Ġwrac": 3215,
      "ĠpÃ³ÅĤno": 3216,
      "Ġkrwa": 3217,
      "ĠZresztÄħ": 3218,
      "ĠAleÅ¼": 3219,
      "ĠPu": 3220,
      "ĠprzykÅĤad": 3221,
      "leÅĦ": 3222,
      "ren": 3223,
      "wiÄĻc": 3224,
      "Ġpierwsze": 3225,
      "Ġdrugim": 3226,
      "ĠspÄĻ": 3227,
      "Äħb": 3228,
      "mieni": 3229,
      "Ġprzedmio": 3230,
      "Ġwzrok": 3231,
      "ryta": 3232,
      "Ġokre": 3233,
      "wano": 3234,
      "ĠzaÅĤo": 3235,
      "zdro": 3236,
      "rzeÅĦ": 3237,
      "bro": 3238,
      "Ġruch": 3239,
      "arem": 3240,
      "Ġgniew": 3241,
      "ĠczoÅĤo": 3242,
      "ryka": 3243,
      "gdyÅĽ": 3244,
      "Ġbe": 3245,
      "cony": 3246,
      "wsze": 3247,
      "Ġzrozu": 3248,
      "Ġserde": 3249,
      "ĠbÅĤÄĻki": 3250,
      "dnÄħ": 3251,
      "ĠmogÅĤem": 3252,
      "ĠpoÅ¼e": 3253,
      "Ġumy": 3254,
      "Ġznajo": 3255,
      "Ġsce": 3256,
      "ĠprzyjÄĻ": 3257,
      "ĠzdawaÅĤo": 3258,
      "Ġstole": 3259,
      "ĠsÅĤod": 3260,
      "niesie": 3261,
      "ĠwieczÃ³r": 3262,
      "Ġkwa": 3263,
      "owiadaÅĤ": 3264,
      "Ġostatnie": 3265,
      "ĠpoczÄħtku": 3266,
      "stego": 3267,
      "ĠÅĽwiÄħ": 3268,
      "dzaÅĤ": 3269,
      "Ġdroga": 3270,
      "ĠzwÅĤaszcza": 3271,
      "ĠrzÄħd": 3272,
      "Ġnies": 3273,
      "rÃ³wna": 3274,
      "ĠZda": 3275,
      "ĠuwaÅ¼a": 3276,
      "Ġkre": 3277,
      "Äħcym": 3278,
      "ĠczÅĤowiekiem": 3279,
      "Ġbr": 3280,
      "gÅĤy": 3281,
      "Ġdawno": 3282,
      "Ġminu": 3283,
      "Ġprzychodzi": 3284,
      "kwi": 3285,
      "ĠDru": 3286,
      "stoj": 3287,
      "?âĢĿ": 3288,
      "Ġklu": 3289,
      "Ġwez": 3290,
      "mil": 3291,
      "Ġwychodzi": 3292,
      "nowa": 3293,
      "nice": 3294,
      "Ġodkry": 3295,
      "adu": 3296,
      "ĠnamiÄĻ": 3297,
      "Ġodby": 3298,
      "Ġprzyzna": 3299,
      "sce": 3300,
      "ĠMat": 3301,
      "trzeÄĩ": 3302,
      "Ġczyli": 3303,
      "Ġsprawa": 3304,
      "di": 3305,
      "kÅĤada": 3306,
      "ĠjakiegoÅĽ": 3307,
      "ĠwidziaÅĤem": 3308,
      "ĠwszedÅĤ": 3309,
      "Ġskle": 3310,
      "ÅĤopo": 3311,
      "Ġwystar": 3312,
      "rÃ³Å¼y": 3313,
      "ĠNigdy": 3314,
      "nÃ³": 3315,
      "wymi": 3316,
      "ĠFa": 3317,
      "ĠAlbo": 3318,
      "Ġniezmier": 3319,
      "ĠÅĽlu": 3320,
      "sek": 3321,
      "Ġdoda": 3322,
      "Ġnieprzyja": 3323,
      "Ġuroczy": 3324,
      "nom": 3325,
      "Ġkan": 3326,
      "ĠPe": 3327,
      "ĠPrzecieÅ¼": 3328,
      "ĠzmÄĻ": 3329,
      "ĠdrugÄħ": 3330,
      "Ġpolity": 3331,
      "lon": 3332,
      "ĠÅ¼aden": 3333,
      "sji": 3334,
      "kimi": 3335,
      "ĠOt": 3336,
      "mach": 3337,
      "ĠsiÅĤ": 3338,
      "Ġkul": 3339,
      "ĠsÅĤusz": 3340,
      "Ġzde": 3341,
      "ĠklÄĻ": 3342,
      "Å¼ek": 3343,
      "Ġzgu": 3344,
      "rucho": 3345,
      "ĠmieÅĽcie": 3346,
      "Ġpewien": 3347,
      "Ġzew": 3348,
      "ĠwyglÄħda": 3349,
      "ĠBra": 3350,
      "pisa": 3351,
      "Å¼em": 3352,
      "ĠzwiÄħz": 3353,
      "Ġubo": 3354,
      "Ġpewnego": 3355,
      "ĠCzu": 3356,
      "ĠnieszczÄĻÅĽli": 3357,
      "Ġbrzegu": 3358,
      "owaÅĤem": 3359,
      "Ġgi": 3360,
      "ser": 3361,
      "ĠÅ¼ony": 3362,
      "Ġodpowiada": 3363,
      "Ġ3": 3364,
      "Ġtwier": 3365,
      "Äħcego": 3366,
      "Ġboha": 3367,
      "Ġdomy": 3368,
      "ĠÅĽwiatÅĤa": 3369,
      "ĠnajwyÅ¼": 3370,
      "ĠpeÅĤne": 3371,
      "mienie": 3372,
      "Ġwypra": 3373,
      "ĠcaÅĤego": 3374,
      "Ġfak": 3375,
      "Ġwzrokiem": 3376,
      "ĠkaÅ¼dej": 3377,
      "ĠchcÄħc": 3378,
      "ĠÅ¼em": 3379,
      "rzym": 3380,
      "ĠmaÅĤÅ¼e": 3381,
      "jÃ³w": 3382,
      "Ġpewnie": 3383,
      "Ġdam": 3384,
      "Ġzarazem": 3385,
      "Ġban": 3386,
      "ĠÅĽpi": 3387,
      "ĠkaÅ¼dego": 3388,
      "bij": 3389,
      "rzony": 3390,
      "moÅĽÄĩ": 3391,
      "lii": 3392,
      "Ġmorze": 3393,
      "dro": 3394,
      "Ġzachwy": 3395,
      "ĠpostÄĻp": 3396,
      "szenia": 3397,
      "ĠSu": 3398,
      "ĠRze": 3399,
      "ĠpostaÄĩ": 3400,
      "Ġprzek": 3401,
      "nieÅĽÄĩ": 3402,
      "wili": 3403,
      "Ġzbo": 3404,
      "ĠsamÄħ": 3405,
      "ĠPatrz": 3406,
      "Ġnaszym": 3407,
      "kam": 3408,
      "Ġkoni": 3409,
      "ĠrÃ³Å¼ne": 3410,
      "ĠRzy": 3411,
      "Ġteat": 3412,
      "Ġczemu": 3413,
      "sunÄħÅĤ": 3414,
      "Ġpomi": 3415,
      "nemi": 3416,
      "Ġwielka": 3417,
      "ĠWil": 3418,
      "Ġwydaje": 3419,
      "Ġpierwszej": 3420,
      "ÅĤach": 3421,
      "noszÄħc": 3422,
      "ĠzawoÅĤaÅĤa": 3423,
      "siÄħce": 3424,
      "Ġlos": 3425,
      "Å¼ni": 3426,
      "Ġv": 3427,
      "Ġprzyjdzie": 3428,
      "ĠznaleÅºÄĩ": 3429,
      "ÅĦce": 3430,
      "Ġkup": 3431,
      "ĠNagle": 3432,
      "ĠstanÄħÅĤ": 3433,
      "Ġhono": 3434,
      "dziÅĤem": 3435,
      "ĠBardzo": 3436,
      "ĠKsiÄĻ": 3437,
      "ĠRy": 3438,
      "Ġpanem": 3439,
      "Ġzawie": 3440,
      "ĠprÄĻdzej": 3441,
      "stÃ³w": 3442,
      "ĠodezwaÅĤ": 3443,
      "Ġuzna": 3444,
      "Ġpomoc": 3445,
      "ĠwkrÃ³tce": 3446,
      "Ġdziel": 3447,
      "Ġciep": 3448,
      "szaÅĤa": 3449,
      "Ġdostrze": 3450,
      "ĠniegdyÅĽ": 3451,
      "ĠdrogÄħ": 3452,
      "Ġkapelu": 3453,
      "Ġnatury": 3454,
      "Ġniebezpiecze": 3455,
      "Ġkwia": 3456,
      "Ġmorza": 3457,
      "zio": 3458,
      "cone": 3459,
      "ĠmÃ³wiÄħ": 3460,
      "dowaÅĤ": 3461,
      "dzaÄĩ": 3462,
      "twi": 3463,
      "Ġcen": 3464,
      "Ġstarego": 3465,
      "Ġsztuki": 3466,
      "Ġmal": 3467,
      "kul": 3468,
      "Ġmiast": 3469,
      "ĠÅĽwiet": 3470,
      "Å¼one": 3471,
      "ĠÅĤaska": 3472,
      "godnie": 3473,
      "kien": 3474,
      "ĠgÅĤÄĻboko": 3475,
      "Ġpodzi": 3476,
      "Ġsali": 3477,
      "Ġek": 3478,
      "Ġsty": 3479,
      "Ġniczego": 3480,
      "Ġzba": 3481,
      "Ġzy": 3482,
      "ĠmiaÅĤy": 3483,
      "Ġzem": 3484,
      "ĠsÅĤyszaÅĤ": 3485,
      "Ġuz": 3486,
      "Ġbrata": 3487,
      "Ġodzy": 3488,
      "ĠoÅĽwie": 3489,
      "ĠpieniÄĻdzy": 3490,
      "paÄĩ": 3491,
      "Ġpias": 3492,
      "ment": 3493,
      "wienie": 3494,
      "menta": 3495,
      "ĠGa": 3496,
      "ĠmoÅ¼esz": 3497,
      "Ġgospoda": 3498,
      "ĠKrÃ³l": 3499,
      "Ġczter": 3500,
      "Ġwielkich": 3501,
      "mÄħ": 3502,
      "ĠgroÅº": 3503,
      "dÅĤug": 3504,
      "ĠleÅ¼y": 3505,
      "ĠniektÃ³": 3506,
      "ĠradoÅĽci": 3507,
      "Ġledwie": 3508,
      "ĠNawet": 3509,
      "ĠpiÄĻkne": 3510,
      "gosÅĤa": 3511,
      "ĠtÅĤum": 3512,
      "knie": 3513,
      "ret": 3514,
      "par": 3515,
      "Ġzanim": 3516,
      "Ġprzeby": 3517,
      "ĠsprawÄĻ": 3518,
      "Ġkrzyw": 3519,
      "ĠNikt": 3520,
      "Ġpoma": 3521,
      "zmu": 3522,
      "ĠtÅĤuma": 3523,
      "ĠpiÄĻkna": 3524,
      "lec": 3525,
      "Ġtymi": 3526,
      "szczu": 3527,
      "ĠciÄħgu": 3528,
      "Ġzacho": 3529,
      "Ġreli": 3530,
      "Ġwio": 3531,
      "ĠnapeÅĤ": 3532,
      "ĠzwrÃ³ci": 3533,
      "ĠdziesiÄĻÄĩ": 3534,
      "ĠmiaÅĤo": 3535,
      "Ġczyta": 3536,
      "ĠÅ¼al": 3537,
      "per": 3538,
      "ĠbiaÅĤe": 3539,
      "ĠpuÅĤ": 3540,
      "szaÅĤem": 3541,
      "rzaÅĤy": 3542,
      "ĠkrzyknÄħÅĤ": 3543,
      "Ġbyle": 3544,
      "bÃ³w": 3545,
      "dnia": 3546,
      "czni": 3547,
      "Ġprofe": 3548,
      "ĠczuÅĤ": 3549,
      "Ġpola": 3550,
      "kar": 3551,
      "Ġbrz": 3552,
      "Ġnadz": 3553,
      "siej": 3554,
      "ĠszeÅĽÄĩ": 3555,
      "Ġ19": 3556,
      "ĠmaÅĤe": 3557,
      "nnej": 3558,
      "ĠspoÅĤecz": 3559,
      "nkÃ³w": 3560,
      "ĠpoÅĤ": 3561,
      "ĠÅĽmiaÅĤ": 3562,
      "ĠDaj": 3563,
      "stoÅĽci": 3564,
      "nnego": 3565,
      "Ġwieczorem": 3566,
      "ĠmÅĤodo": 3567,
      "Ġzielo": 3568,
      "ĠoÅĽwiad": 3569,
      "ĠpokÃ³j": 3570,
      "ĠOch": 3571,
      "ĠÅĤy": 3572,
      "Ġwszak": 3573,
      "dzieÅĽcia": 3574,
      "Ġcel": 3575,
      "ĠskoÅĦ": 3576,
      "ĠskÅĤo": 3577,
      "tur": 3578,
      "ÅĽniej": 3579,
      "ĠDziÅĽ": 3580,
      "Ġpowsze": 3581,
      "Ġnowy": 3582,
      "ĠstaÅĤy": 3583,
      "gÅĤÄĻ": 3584,
      "tymi": 3585,
      "ĠOr": 3586,
      "Ġkim": 3587,
      "?!": 3588,
      "Ġwszech": 3589,
      "Ġstoli": 3590,
      "ĠÅĽmiertel": 3591,
      "ĠChÅĤo": 3592,
      "Ġuczucia": 3593,
      "rÃ³cz": 3594,
      "ĠMaciu": 3595,
      "Ã³ki": 3596,
      "por": 3597,
      "dra": 3598,
      "Ġokaz": 3599,
      "ĠBer": 3600,
      "szeÄĩ": 3601,
      "Ġtwoja": 3602,
      "ĠczegoÅĽ": 3603,
      "Ġczarne": 3604,
      "Ġosie": 3605,
      "Ġnatural": 3606,
      "ĠChoÄĩ": 3607,
      "ĠdÃ³ÅĤ": 3608,
      "ĠJÃ³": 3609,
      "Ġprzezna": 3610,
      "Ġupad": 3611,
      "pio": 3612,
      "owiad": 3613,
      "wany": 3614,
      "lnym": 3615,
      "Ġono": 3616,
      "Ġfabry": 3617,
      "Ġtrafi": 3618,
      "ĠjakimÅĽ": 3619,
      "Ġsprowa": 3620,
      "ĠwÅĤasnej": 3621,
      "ĠJeden": 3622,
      "gnÄħÅĤ": 3623,
      "ĠktÃ³remu": 3624,
      "ĠwyjÄħ": 3625,
      "Ġzazdro": 3626,
      "rzyÅĤo": 3627,
      "ĠgÅĤowa": 3628,
      "Ġgod": 3629,
      "dzone": 3630,
      "jach": 3631,
      "Ġwu": 3632,
      "kÅĤem": 3633,
      "ĠrzÄĻ": 3634,
      "ÅĤej": 3635,
      "Ġju": 3636,
      "Ġobcy": 3637,
      "ĠSto": 3638,
      "ĠWreszcie": 3639,
      "Ġrok": 3640,
      "teÅ¼": 3641,
      "czona": 3642,
      "Ġpostawi": 3643,
      "ĠuwagÄĻ": 3644,
      "ĠjakiejÅĽ": 3645,
      "ĠmÄħ": 3646,
      "prawiedli": 3647,
      "ĠdziÄĻki": 3648,
      "Ġprzywi": 3649,
      "Ġmojego": 3650,
      "ĠbyÅĤby": 3651,
      "Ġdziewczyna": 3652,
      "ck": 3653,
      "wienia": 3654,
      "ĠpodÅĤo": 3655,
      "skÄĻ": 3656,
      "szedÅĤem": 3657,
      "ajutrz": 3658,
      "ÅĦska": 3659,
      "Ġroboty": 3660,
      "oru": 3661,
      "ĠgaÅĤÄĻ": 3662,
      "ĠskoÅĦczy": 3663,
      "cili": 3664,
      "Ġcodzie": 3665,
      "ĠciÄĻÅ¼ko": 3666,
      "ĠSo": 3667,
      "wki": 3668,
      "Ġpoety": 3669,
      "ĠpocaÅĤ": 3670,
      "Ġszale": 3671,
      "ĠokoÅĤo": 3672,
      "Ġkolej": 3673,
      "wiajÄħc": 3674,
      "ĠkoÅĤ": 3675,
      "ara": 3676,
      "teli": 3677,
      "Ġleka": 3678,
      "Ġrozp": 3679,
      "naÅĤem": 3680,
      "Ġsym": 3681,
      "Ġwnet": 3682,
      "ĠpoÅĽpie": 3683,
      "Ġniemie": 3684,
      "Ġotrzy": 3685,
      "oÅĤa": 3686,
      "Ġwraca": 3687,
      "ĠnaÅĦ": 3688,
      "Ġher": 3689,
      "ly": 3690,
      "Ġokry": 3691,
      "Ġwidocznie": 3692,
      "Ġponu": 3693,
      "Ġbry": 3694,
      "Ġstron": 3695,
      "Ġtre": 3696,
      "ĠktÃ³rymi": 3697,
      "Ġzagad": 3698,
      "Ġanio": 3699,
      "szenie": 3700,
      "gam": 3701,
      "taÅĤem": 3702,
      "Ġzamku": 3703,
      "ĠkÄĻ": 3704,
      "Ġmoral": 3705,
      "ĠZie": 3706,
      "Ġwydoby": 3707,
      "fu": 3708,
      "Ġwyna": 3709,
      "ĠÅĽciany": 3710,
      "Ġrady": 3711,
      "Ġlekko": 3712,
      "ĠchrzeÅĽci": 3713,
      "Ġwprawdzie": 3714,
      "Ġokno": 3715,
      "Ġpoez": 3716,
      "Ġpowietrzu": 3717,
      "Ġgdybym": 3718,
      "Ġnieza": 3719,
      "ille": 3720,
      "ĠDlatego": 3721,
      "Ġwpad": 3722,
      "czaÅĤa": 3723,
      "ÅĦskim": 3724,
      "Ġziem": 3725,
      "sÄħd": 3726,
      "Ġwzajem": 3727,
      "Ġstry": 3728,
      "Ġsek": 3729,
      "ĠTro": 3730,
      "czyli": 3731,
      "ĠMÃ³wi": 3732,
      "niajÄħc": 3733,
      "Ġprzyg": 3734,
      "Ġrozkaz": 3735,
      "ciej": 3736,
      "Ġzaro": 3737,
      "ĠprawdÄĻ": 3738,
      "Ġosobi": 3739,
      "Ġznam": 3740,
      "Ġostate": 3741,
      "dziÅĤo": 3742,
      "Ġprzypomina": 3743,
      "Ġpodnosi": 3744,
      "Ġpodobne": 3745,
      "stÄħpiÄĩ": 3746,
      "ĠÅºrÃ³d": 3747,
      "kujÄĻ": 3748,
      "ckich": 3749,
      "dnio": 3750,
      "pem": 3751,
      "ĠstoÅĤu": 3752,
      "Ġofiar": 3753,
      "stki": 3754,
      "Ġwolna": 3755,
      "kiedy": 3756,
      "ĠwaÅ¼": 3757,
      "00": 3758,
      "ĠstaÄĩ": 3759,
      "Ġbroni": 3760,
      "deÅĤ": 3761,
      "ĠrÃ³Å¼nych": 3762,
      "stety": 3763,
      "eb": 3764,
      "ĠCe": 3765,
      "kier": 3766,
      "Ġblisko": 3767,
      "ĠbÄĻdziemy": 3768,
      "ĠgÅĤup": 3769,
      "ĠJednak": 3770,
      "leci": 3771,
      "Ġcof": 3772,
      "owaÅĤo": 3773,
      "Ġwedle": 3774,
      "ĠKaro": 3775,
      "ĠczymÅĽ": 3776,
      "ĠSze": 3777,
      "Ġprzer": 3778,
      "kroÄĩ": 3779,
      "ĠumiaÅĤ": 3780,
      "Ġdawna": 3781,
      "Ġpocho": 3782,
      "ĠmyÅĽlÄĻ": 3783,
      "Ġlicz": 3784,
      "Ġrzeki": 3785,
      "ĠpomocÄħ": 3786,
      "Ġbab": 3787,
      "Ġota": 3788,
      "ĠsÅĤychaÄĩ": 3789,
      "Ġpierwszym": 3790,
      "Ġpowrotem": 3791,
      "ĠPow": 3792,
      "raÅ¼a": 3793,
      "ĠpewnoÅĽciÄħ": 3794,
      "ĠsÅĤowem": 3795,
      "ĠTego": 3796,
      "ĠLud": 3797,
      "ĠjesteÅĽmy": 3798,
      "Ġpowinien": 3799,
      "Ġsrebr": 3800,
      "woÅĽciÄħ": 3801,
      "mieÅĦ": 3802,
      "Ġwina": 3803,
      "Ġokiem": 3804,
      "ĠAnd": 3805,
      "Ġstud": 3806,
      "ĠwstrÄĻ": 3807,
      "Ġnadzwyczaj": 3808,
      "Ġpogar": 3809,
      "Ġnat": 3810,
      "dziÅĤy": 3811,
      "Ġpomocy": 3812,
      "Ġdziad": 3813,
      "ĠEl": 3814,
      "Ġbieg": 3815,
      "Ġziemia": 3816,
      "czar": 3817,
      "ĠpoÅ¼": 3818,
      "Ġwchodzi": 3819,
      "ĠWÅĤo": 3820,
      "wne": 3821,
      "Ġspie": 3822,
      "ĠdwadzieÅĽcia": 3823,
      "Ġoczami": 3824,
      "mar": 3825,
      "Ġniezwy": 3826,
      "ĠprÃ³cz": 3827,
      "ĠZy": 3828,
      "ĠznaÄĩ": 3829,
      "sen": 3830,
      "ĠproÅĽ": 3831,
      "Ġpanny": 3832,
      "lnych": 3833,
      "towaÅĤ": 3834,
      "nikiem": 3835,
      "ĠposÅĤa": 3836,
      "Ġwidzisz": 3837,
      "szto": 3838,
      "nkiem": 3839,
      "Ġdoli": 3840,
      "ĠCzar": 3841,
      "Ġbrat": 3842,
      "rÄħg": 3843,
      "ÅĤta": 3844,
      "ĠWszak": 3845,
      "ĠpamiÄĻci": 3846,
      "Ġrozmowy": 3847,
      "ĠmiesiÄħc": 3848,
      "kre": 3849,
      "Ġnasza": 3850,
      "ĠksiÄĻcia": 3851,
      "Ġdnie": 3852,
      "ciela": 3853,
      "ĠogÃ³l": 3854,
      "Ġpolu": 3855,
      "ĠStef": 3856,
      "Ġwyko": 3857,
      "nica": 3858,
      "ĠkrokÃ³w": 3859,
      "Ġuczci": 3860,
      "szyÅĤa": 3861,
      "esz": 3862,
      "ĠzÅĤego": 3863,
      "Å¼yli": 3864,
      "dÅºmi": 3865,
      "ĠsiedzÄħc": 3866,
      "Ġskrom": 3867,
      "Ġdoro": 3868,
      "ĠZaraz": 3869,
      "ĠWiem": 3870,
      "ĠmogÅĤy": 3871,
      "mian": 3872,
      "Ġpowiedz": 3873,
      "skar": 3874,
      "ĠciemnoÅĽci": 3875,
      "ĠwewnÄĻtrz": 3876,
      "ĠwrÃ³ciÅĤ": 3877,
      "ĠspokÃ³j": 3878,
      "Ġistocie": 3879,
      "tnego": 3880,
      "Ġcudow": 3881,
      "ĠJez": 3882,
      "Ġtrzydzie": 3883,
      "Ġwszelkie": 3884,
      "Ġtrzyma": 3885,
      "Ġpunk": 3886,
      "biÄĻ": 3887,
      "Ġokrzy": 3888,
      "Ġzjawi": 3889,
      "ĠKaÅ¼dy": 3890,
      "czonych": 3891,
      "Ġbada": 3892,
      "ĠwodÄĻ": 3893,
      "sÄħ": 3894,
      "Ġprosi": 3895,
      "ĠsÅĤucha": 3896,
      "Ġnarod": 3897,
      "chÄħ": 3898,
      "skaÅĤ": 3899,
      "Ġpostaci": 3900,
      "ĠszepnÄħÅĤ": 3901,
      "atem": 3902,
      "ĠwedÅĤug": 3903,
      "ĠodrzekÅĤ": 3904,
      "Ġtrzeci": 3905,
      "Ġzaledwie": 3906,
      "ĠdÅĤuÅ¼ej": 3907,
      "ĠTwo": 3908,
      "niesi": 3909,
      "ĠszukaÄĩ": 3910,
      "Ġszeroko": 3911,
      "Ġczap": 3912,
      "naÅĤy": 3913,
      "ĠnÃ³g": 3914,
      "ĠludÅºmi": 3915,
      "Ġbrak": 3916,
      "ĠKry": 3917,
      "ĠmÄĻÅ¼czyz": 3918,
      "ĠurzÄħ": 3919,
      "podob": 3920,
      "Ġzapro": 3921,
      "Ġwojny": 3922,
      "Äħcej": 3923,
      "Å¼yÅĤem": 3924,
      "kÄħd": 3925,
      "Ġkoro": 3926,
      "Ġzarzu": 3927,
      "Ġrzuca": 3928,
      "ĠmyÅĽleÄĩ": 3929,
      "zujÄħc": 3930,
      "Ġwasz": 3931,
      "czeÅĦ": 3932,
      "ĠIdÅº": 3933,
      "ÅĦstwie": 3934,
      "lna": 3935,
      "ĠChry": 3936,
      "Ġkru": 3937,
      "he": 3938,
      "Ġrzuc": 3939,
      "czyÅĤo": 3940,
      "Ġmilczeniu": 3941,
      "nnÄħ": 3942,
      "Ġmini": 3943,
      "ĠskrzydÅĤa": 3944,
      "Ġnade": 3945,
      "niÅĤo": 3946,
      "ĠdÅĤoÅĦ": 3947,
      "siu": 3948,
      "bija": 3949,
      "ĠwÅĤaÅĽciwie": 3950,
      "Ġczwar": 3951,
      "Ġpusty": 3952,
      "ĠzÅĤota": 3953,
      "ĠzostaÅĤa": 3954,
      "Ġwprowa": 3955,
      "dwo": 3956,
      "czych": 3957,
      "laÅĤa": 3958,
      "ĠchwilÄħ": 3959,
      "czyÅĤy": 3960,
      "Ġwyrze": 3961,
      "rywaÅĤ": 3962,
      "ÅĽciej": 3963,
      "ĠJakie": 3964,
      "ĠdÅºwiÄĻ": 3965,
      "ĠwzglÄĻdem": 3966,
      "akie": 3967,
      "niom": 3968,
      "Ġdzisiej": 3969,
      "Ġpotrzebu": 3970,
      "set": 3971,
      "Ġbierze": 3972,
      "ĠrÄĻko": 3973,
      "ĠprzysiÄĻ": 3974,
      "wÄħt": 3975,
      "nnoÅĽci": 3976,
      "tury": 3977,
      "ĠMyÅĽl": 3978,
      "Ġchwil": 3979,
      "ĠwziÄħÄĩ": 3980,
      "dowaÄĩ": 3981,
      "ĠHar": 3982,
      "Ġrozkosz": 3983,
      "Ġgrom": 3984,
      "ĠuczyniÄĩ": 3985,
      "tnoÅĽÄĩ": 3986,
      "ĠwÅĤasne": 3987,
      "Ġpodda": 3988,
      "Ġdawniej": 3989,
      "ĠcaÅĤo": 3990,
      "Ġswojego": 3991,
      "Ġwscho": 3992,
      "ĠRaz": 3993,
      "sow": 3994,
      "niaÄĩ": 3995,
      "ĠbÅĤyszcz": 3996,
      "ciÄħga": 3997,
      "braÅĤ": 3998,
      "daÅĤa": 3999,
      "gdzie": 4000,
      "ĠmusiaÅĤa": 4001,
      "ckiej": 4002,
      "leko": 4003,
      "ĠrÃ³wno": 4004,
      "Ġwich": 4005,
      "Ġzje": 4006,
      "moc": 4007,
      "Ġnazywa": 4008,
      "ĠDziÄĻ": 4009,
      "ĠTom": 4010,
      "ĠSÅĤo": 4011,
      "ĠpomyÅĽlaÅĤ": 4012,
      "Ġdoz": 4013,
      "ĠwesoÅĤo": 4014,
      "omi": 4015,
      "stw": 4016,
      "Ġuwagi": 4017,
      "nÄħtrz": 4018,
      "Ġprzyjaciel": 4019,
      "zda": 4020,
      "Ġoku": 4021,
      "ĠSp": 4022,
      "dniej": 4023,
      "ĠSzy": 4024,
      "ĠFe": 4025,
      "Ġ:": 4026,
      "nieÄĩ": 4027,
      "ĠÅ¼onÄĻ": 4028,
      "Ġner": 4029,
      "Ġpas": 4030,
      "Ġdziecka": 4031,
      "ĠpatrzyÅĤ": 4032,
      "Ġzanie": 4033,
      "fie": 4034,
      "niaÅĤo": 4035,
      "Ġnieje": 4036,
      "ĠramiÄĻ": 4037,
      "Ġzasa": 4038,
      "ĠpÃ³ki": 4039,
      "ks": 4040,
      "lnej": 4041,
      "Ġsalo": 4042,
      "Ġniewol": 4043,
      "Ġzwrac": 4044,
      "ĠÄĩ": 4045,
      "Ġcio": 4046,
      "Ġpta": 4047,
      "ĠczasÃ³w": 4048,
      "Ġabym": 4049,
      "ĠWszystkie": 4050,
      "ĠNe": 4051,
      "Ġprzyz": 4052,
      "rÄĻcz": 4053,
      "ĠÅļwi": 4054,
      "ĠosÃ³b": 4055,
      "Ġnowego": 4056,
      "ĠAngli": 4057,
      "Ġnagro": 4058,
      "ĠMÃ³w": 4059,
      "ÅĽka": 4060,
      "niÄĻta": 4061,
      "Ġdziwnie": 4062,
      "tomiast": 4063,
      "ĠmyÅĽlÄħ": 4064,
      "rabia": 4065,
      "Ġlasu": 4066,
      "Ġogo": 4067,
      "ĠpodrÃ³Å¼y": 4068,
      "Ġdoskonale": 4069,
      "Ġposiad": 4070,
      "szaÄĩ": 4071,
      "Ġniesko": 4072,
      "Åºdzie": 4073,
      "ĠMil": 4074,
      "Ġreligi": 4075,
      "stru": 4076,
      "Ġnierucho": 4077,
      "ĠsiÅĤÄħ": 4078,
      "dowi": 4079,
      "dzieÅĦ": 4080,
      "tua": 4081,
      "Ġspoczy": 4082,
      "ĠzostaÄĩ": 4083,
      "ĠumysÅĤ": 4084,
      "ĠtwarzÄħ": 4085,
      "hi": 4086,
      "Ġnarze": 4087,
      "Ġciot": 4088,
      "lka": 4089,
      "wÅĤa": 4090,
      "Ġwiary": 4091,
      "ĠweÅº": 4092,
      "ÅĦstw": 4093,
      "ve": 4094,
      "ĠgorÄħ": 4095,
      "Ġliteratu": 4096,
      "Ġmiesz": 4097,
      "niona": 4098,
      "tanie": 4099,
      "ĠOjciec": 4100,
      "rzyÅĤy": 4101,
      "ĠzwrÃ³ciÅĤ": 4102,
      "ĠwyraÅºnie": 4103,
      "ĠÅ¼adnych": 4104,
      "ĠpaÅĦstwa": 4105,
      "fy": 4106,
      "Ġbezpie": 4107,
      "Ġzapra": 4108,
      "laÄĩ": 4109,
      "ĠsiÅĤa": 4110,
      "Ġplu": 4111,
      "ĠzasÅĤo": 4112,
      "ĠdzieciÄĻ": 4113,
      "Ġobywa": 4114,
      "Ġkieszeni": 4115,
      "myÅĽla": 4116,
      "ĠpatrzeÄĩ": 4117,
      "ĠspaÄĩ": 4118,
      "lin": 4119,
      "Ġpytanie": 4120,
      "sor": 4121,
      "zja": 4122,
      "Ġwym": 4123,
      "ĠMnie": 4124,
      "akiem": 4125,
      "ĠhaÅĤa": 4126,
      "ÅĦstwem": 4127,
      "com": 4128,
      "ĠnieszczÄĻÅĽcie": 4129,
      "ĠAby": 4130,
      "ĠzÅĤe": 4131,
      "lina": 4132,
      "stÄĻpuje": 4133,
      "Ġdaleka": 4134,
      "ĠPowiedz": 4135,
      "cenie": 4136,
      "ĠPoz": 4137,
      "lÄħdaÄĩ": 4138,
      "pienia": 4139,
      "ĠgÅĤa": 4140,
      "ĠWal": 4141,
      "Ġwielko": 4142,
      "ĠMiaÅĤ": 4143,
      "pierw": 4144,
      "Ġkwiaty": 4145,
      "bami": 4146,
      "Ġludu": 4147,
      "Ġzostanie": 4148,
      "Ġus": 4149,
      "Ġludziom": 4150,
      "Ġprzew": 4151,
      "ĠmÃ³wisz": 4152,
      "Ġrozmai": 4153,
      "Ġobiad": 4154,
      "ĠmiÄĻk": 4155,
      "hy": 4156,
      "staje": 4157,
      "kÃ³ÅĤ": 4158,
      "Ġnieprze": 4159,
      "tali": 4160,
      "ĠtwÃ³r": 4161,
      "Ġab": 4162,
      "ĠkoÅĤy": 4163,
      "Ġniecier": 4164,
      "Ġpierwszego": 4165,
      "Ġistotnie": 4166,
      "ĠksiÄħdz": 4167,
      "fer": 4168,
      "niÅĤy": 4169,
      "Ġoczeki": 4170,
      "telu": 4171,
      "ĠDÅĤu": 4172,
      "ĠmnÃ³": 4173,
      "ĠrÄĻkami": 4174,
      "ĠCha": 4175,
      "dami": 4176,
      "Ġpotwo": 4177,
      "Ġgrani": 4178,
      "chÅĤa": 4179,
      "ĠprzyszÅĤa": 4180,
      "Ġodczu": 4181,
      "Ġchleba": 4182,
      "Ã³Åº": 4183,
      "ÅĤuma": 4184,
      "Ġustach": 4185,
      "Ġpodzie": 4186,
      "Äħco": 4187,
      "ĠwzgÃ³": 4188,
      "Ġwzbu": 4189,
      "Ġkocham": 4190,
      "kuje": 4191,
      "Ġdelika": 4192,
      "ĠCzÅĤowie": 4193,
      "ĠuczyniÅĤ": 4194,
      "lnÄħ": 4195,
      "tko": 4196,
      "nowie": 4197,
      "dam": 4198,
      "ĠÅ¼Äħda": 4199,
      "Ġpoto": 4200,
      "niejszym": 4201,
      "Ġprzedtem": 4202,
      "ĠjÃ©j": 4203,
      "tyk": 4204,
      "Ġopo": 4205,
      "Ġbrzy": 4206,
      "Ġdobrego": 4207,
      "aÅĤe": 4208,
      "ĠSe": 4209,
      "ĠJaki": 4210,
      "ĠpaÅĤacu": 4211,
      "emy": 4212,
      "ĠsÄħsie": 4213,
      "ĠchrzeÅĽcija": 4214,
      "ss": 4215,
      "szer": 4216,
      "Ġnadziei": 4217,
      "tana": 4218,
      "ĠkapÅĤa": 4219,
      "Ġzapo": 4220,
      "Ġ4": 4221,
      "Ġmacie": 4222,
      "niejszÄħ": 4223,
      "Ġepo": 4224,
      "sny": 4225,
      "Ġtwojej": 4226,
      "Ġprawdy": 4227,
      "Ġdrew": 4228,
      "ĠgotÃ³w": 4229,
      "Ġzechce": 4230,
      "Ġpewne": 4231,
      "Ġcierpi": 4232,
      "ĠwrÃ³": 4233,
      "ĠmÅĤy": 4234,
      "ĠuÅĤo": 4235,
      "fo": 4236,
      "Ġpory": 4237,
      "Ġutra": 4238,
      "ĠKon": 4239,
      "Ġrana": 4240,
      "Ġzwo": 4241,
      "knÄĻÅĤa": 4242,
      "Ġzby": 4243,
      "redni": 4244,
      "adÄĻ": 4245,
      "ĠcieÅĦ": 4246,
      "Ġpewnym": 4247,
      "ĠRozdziaÅĤ": 4248,
      "ĠwÃ³d": 4249,
      "sÅĤaÅĤ": 4250,
      "ĠpiÄĻkny": 4251,
      "ĠobÅĤo": 4252,
      "Ġognia": 4253,
      "Ġlas": 4254,
      "Ġporo": 4255,
      "Ġprzyro": 4256,
      "saÄĩ": 4257,
      "Ġpob": 4258,
      "rok": 4259,
      "Ġdop": 4260,
      "ĠbÅĤyska": 4261,
      "Ġkor": 4262,
      "ĠoczywiÅĽcie": 4263,
      "tkÄĻ": 4264,
      "noÅĽ": 4265,
      "ÅĤowi": 4266,
      "ĠpoznaÄĩ": 4267,
      "Ġrobotni": 4268,
      "ĠusÅĤu": 4269,
      "glÄħdaÅĤ": 4270,
      "ĠÅĽrodku": 4271,
      "zji": 4272,
      "ĠwnÄĻ": 4273,
      "Ġosi": 4274,
      "Ġmoi": 4275,
      "ĠChciaÅĤ": 4276,
      "Ġjemu": 4277,
      "lom": 4278,
      "Ġstan": 4279,
      "Ġtwego": 4280,
      "stka": 4281,
      "Ġotwiera": 4282,
      "Ġzato": 4283,
      "przeciw": 4284,
      "ĠPamiÄĻ": 4285,
      "Ġdoktor": 4286,
      "ĠksiÄħÅ¼ki": 4287,
      "rzone": 4288,
      "ĠIle": 4289,
      "Ġboku": 4290,
      "Ġhe": 4291,
      "Ġinsty": 4292,
      "hu": 4293,
      "adÅĤa": 4294,
      "ĠskÅĤada": 4295,
      "Ġpodsta": 4296,
      "ĠsÅĤuch": 4297,
      "Ġgodzin": 4298,
      "ĠÅ¼eÅĽ": 4299,
      "gajÄħc": 4300,
      "sti": 4301,
      "owana": 4302,
      "ÅĽÅĦ": 4303,
      "roma": 4304,
      "ctwo": 4305,
      "gla": 4306,
      "mujÄħc": 4307,
      "ĠduÅ¼y": 4308,
      "ĠCzemu": 4309,
      "ĠwÅĤasnÄħ": 4310,
      "Ġpija": 4311,
      "Ġizby": 4312,
      "ĠzobaczyÄĩ": 4313,
      "ĠDy": 4314,
      "ĠodpowiedziaÅĤa": 4315,
      "ĠPrawda": 4316,
      "Ġangiel": 4317,
      "Ġratu": 4318,
      "bliÅ¼": 4319,
      "ĠSkÄħd": 4320,
      "Ġdeszcz": 4321,
      "Ġprzyci": 4322,
      "ĠwÅĤÃ³": 4323,
      "ĠÅĽmiechem": 4324,
      "ĠMor": 4325,
      "ĠchcÄħ": 4326,
      "ÅĤecze": 4327,
      "ĠzauwaÅ¼yÅĤ": 4328,
      "Ġprzeko": 4329,
      "Ġprzeba": 4330,
      "ĠdziewczÄĻ": 4331,
      "ĠwstrzÄħ": 4332,
      "Ġkierunku": 4333,
      "ĠrzÄħ": 4334,
      "ĠAme": 4335,
      "Ġnapo": 4336,
      "wale": 4337,
      "ĠchÄĻtnie": 4338,
      "Ġprzewo": 4339,
      "Ġbaj": 4340,
      "ĠrÄĻkach": 4341,
      "fry": 4342,
      "Ġpowierzch": 4343,
      "au": 4344,
      "ĠbÃ³l": 4345,
      "ÅĤow": 4346,
      "czajÄħc": 4347,
      "Ġzuch": 4348,
      "ĠjÄĻzyk": 4349,
      "ĠbÅĤogosÅĤa": 4350,
      "lni": 4351,
      "raÅĤa": 4352,
      "cic": 4353,
      "Ġwese": 4354,
      "Ġwierzy": 4355,
      "ĠbÄĻdÄħc": 4356,
      "Ġpoja": 4357,
      "Ġbur": 4358,
      "Ġele": 4359,
      "ĠnÄĻdz": 4360,
      "Ġniewia": 4361,
      "laÅĤy": 4362,
      "miÅĤ": 4363,
      "ĠnadziejÄĻ": 4364,
      "Ġustawi": 4365,
      "Ġpodoba": 4366,
      "ĠwpÃ³ÅĤ": 4367,
      "Ġzmia": 4368,
      "szone": 4369,
      "Ġposa": 4370,
      "ĠwysiÅĤ": 4371,
      "toli": 4372,
      "Ġodej": 4373,
      "ĠkoÅĽcie": 4374,
      "moÅĽci": 4375,
      "ÄħÅ¼ÄĻ": 4376,
      "biegÅĤa": 4377,
      "lnoÅĽci": 4378,
      "pry": 4379,
      "Ġsznu": 4380,
      "ĠÅļwiÄĻ": 4381,
      "ĠgodzinÄĻ": 4382,
      "dÅºmy": 4383,
      "Ġpia": 4384,
      "sier": 4385,
      "Ġniekiedy": 4386,
      "sarz": 4387,
      "ĠHu": 4388,
      "Ġskry": 4389,
      "Ġmaszy": 4390,
      "Ġniespokoj": 4391,
      "Ġnareszcie": 4392,
      "zywaÅĤ": 4393,
      "Åºli": 4394,
      "Ġtowarzysz": 4395,
      "kowie": 4396,
      "skaÄĩ": 4397,
      "ĠSkoro": 4398,
      "Ġpobli": 4399,
      "niÄĻcia": 4400,
      "Ġniemu": 4401,
      "owaniu": 4402,
      "ĠStra": 4403,
      "Ġrodziny": 4404,
      "jmy": 4405,
      "ant": 4406,
      "ĠHer": 4407,
      "Ġludzko": 4408,
      "tkÃ³w": 4409,
      "Ġfanta": 4410,
      "ĠÅĤaÅĦcu": 4411,
      "ble": 4412,
      "Ġwoda": 4413,
      "rzaÅĤem": 4414,
      "Ġpies": 4415,
      "gry": 4416,
      "ĠGre": 4417,
      "Ġport": 4418,
      "Ġgospodar": 4419,
      "ĠtÄĻskno": 4420,
      "it": 4421,
      "ĠÅĽnia": 4422,
      "ĠOw": 4423,
      "wione": 4424,
      "ĠKra": 4425,
      "dzeniu": 4426,
      "tychczas": 4427,
      "Ġgrun": 4428,
      "Ġprzyjaciela": 4429,
      "Ġznajduje": 4430,
      "Ġzmy": 4431,
      "ĠSer": 4432,
      "Ġpozy": 4433,
      "Ġprzedsta": 4434,
      "biego": 4435,
      "entu": 4436,
      "Ġmary": 4437,
      "Ġpopra": 4438,
      "Ġsposobem": 4439,
      "wski": 4440,
      "Ġcich": 4441,
      "ĠpiÃ³": 4442,
      "Ġdwudzie": 4443,
      "Ã¶": 4444,
      "Ġstanow": 4445,
      "ĠGu": 4446,
      "lnego": 4447,
      "Ġpobo": 4448,
      "ĠradoÅĽÄĩ": 4449,
      "syÅĤa": 4450,
      "ĠznaÅĤ": 4451,
      "Ġorgani": 4452,
      "lim": 4453,
      "ĠpoÅĽwiÄĻ": 4454,
      "ĠWÅĤaÅĽnie": 4455,
      "ĠHan": 4456,
      "ĠprÃ³b": 4457,
      "Ġkoszu": 4458,
      "ĠBÄħdÅº": 4459,
      "ĠGra": 4460,
      "ziÄħ": 4461,
      "ĠuÅĽci": 4462,
      "Ġprzestra": 4463,
      "Ġfu": 4464,
      "Ġzbi": 4465,
      "ĠtrÄħ": 4466,
      "ÅĽciÅĤa": 4467,
      "ĠLo": 4468,
      "ĠstÃ³ÅĤ": 4469,
      "lonÄħ": 4470,
      "razu": 4471,
      "myÅĽlnie": 4472,
      "Ġniemi": 4473,
      "Ġtwe": 4474,
      "ĠwyobraÅº": 4475,
      "kty": 4476,
      "ĠdokÅĤa": 4477,
      "dzono": 4478,
      "Ġmiejsc": 4479,
      "ĠLudzie": 4480,
      "Ġzajm": 4481,
      "Ġrozpacz": 4482,
      "dnym": 4483,
      "dyna": 4484,
      "ĠkaÅ¼da": 4485,
      "Ġdoku": 4486,
      "ĠbyÅĽ": 4487,
      "Ġtele": 4488,
      "Ġkoryta": 4489,
      "ĠpoÅĤy": 4490,
      "ĠzgoÅĤa": 4491,
      "ĠHenry": 4492,
      "tli": 4493,
      "ĠosÅĤa": 4494,
      "Ġprzysz": 4495,
      "ĠCa": 4496,
      "ĠIn": 4497,
      "Ġjakoby": 4498,
      "Ġludzkie": 4499,
      "ciÅĤy": 4500,
      "ĠkÅĤam": 4501,
      "taÅĤy": 4502,
      "ĠÅ»eby": 4503,
      "ple": 4504,
      "Ġuszy": 4505,
      "Ġnaraz": 4506,
      "dyj": 4507,
      "asa": 4508,
      "ĠzdoÅĤa": 4509,
      "Ġpoku": 4510,
      "ĠWokul": 4511,
      "ĠdÅĤoni": 4512,
      "ĠkrwiÄħ": 4513,
      "ĠuczuÄĩ": 4514,
      "wny": 4515,
      "ĠniechÄĻ": 4516,
      "czaÄĩ": 4517,
      "ĠpowrÃ³ci": 4518,
      "Ġopar": 4519,
      "Ġwasze": 4520,
      "ĠtwojÄħ": 4521,
      "ĠÅĽwiÄħty": 4522,
      "ĠprzeraÅ¼": 4523,
      "ctwa": 4524,
      "Ġowej": 4525,
      "Ġosoby": 4526,
      "Ġodzie": 4527,
      "Ġutwo": 4528,
      "pliwoÅĽci": 4529,
      "ĠczÅĤo": 4530,
      "Ġpioru": 4531,
      "naj": 4532,
      "ĠpieÅĽni": 4533,
      "szczaÅĤ": 4534,
      "Ġobchodzi": 4535,
      "gier": 4536,
      "Ġrozumiem": 4537,
      "th": 4538,
      "ĠwodÄħ": 4539,
      "Ġkwe": 4540,
      "gor": 4541,
      "Ġznajdzie": 4542,
      "Ġwypu": 4543,
      "ĠOp": 4544,
      "Ġsamych": 4545,
      "ĠDopiero": 4546,
      "dzajÄħc": 4547,
      "Ġzac": 4548,
      "Ġwojska": 4549,
      "Ġstare": 4550,
      "Ġnowych": 4551,
      "Ġfilozofi": 4552,
      "Ġca": 4553,
      "prawdy": 4554,
      "Ġoszu": 4555,
      "lepiej": 4556,
      "ĠcÃ³rki": 4557,
      "ĠkÅĤopo": 4558,
      "czkÄħ": 4559,
      "ĠspoÅĤecze": 4560,
      "pach": 4561,
      "Ġpozwala": 4562,
      "Ġeg": 4563,
      "ĠStary": 4564,
      "ĠmÃ³gÅĤby": 4565,
      "ĠCzego": 4566,
      "zÄĻ": 4567,
      "ĠÅĤÃ³Å¼ka": 4568,
      "Ġolbrzymi": 4569,
      "ĠÅĤez": 4570,
      "jeÅ¼dÅ¼": 4571,
      "Ġsiedem": 4572,
      "stoÅĽÄĩ": 4573,
      "ĠobjÄĻ": 4574,
      "dry": 4575,
      "ban": 4576,
      "dzona": 4577,
      "ĠchÅĤopak": 4578,
      "ĠkogoÅĽ": 4579,
      "snÄħ": 4580,
      "ĠwÃ³z": 4581,
      "dopodob": 4582,
      "Ġoce": 4583,
      "Ġpomie": 4584,
      "ĠNaz": 4585,
      "Ġtor": 4586,
      "Ġlesie": 4587,
      "del": 4588,
      "gat": 4589,
      "gieÅĤ": 4590,
      "ĠnastÄĻpnie": 4591,
      "ĠTru": 4592,
      "ĠzÄĻby": 4593,
      "tno": 4594,
      "ĠpeÅĤen": 4595,
      "ĠTur": 4596,
      "Ġkieli": 4597,
      "Ġowe": 4598,
      "Ġowego": 4599,
      "ĠMich": 4600,
      "wiach": 4601,
      "Ġwielce": 4602,
      "ĠPiot": 4603,
      "chwy": 4604,
      "Ġposzu": 4605,
      "ĠwypeÅĤ": 4606,
      "Ġprzepa": 4607,
      "Ġzdrowie": 4608,
      "Ġtwoim": 4609,
      "Ġpoga": 4610,
      "Ġniewo": 4611,
      "dÅĤuÅ¼": 4612,
      "ĠksiÄĻÅ¼yc": 4613,
      "wolu": 4614,
      "stan": 4615,
      "ĠMimo": 4616,
      "Ġdoby": 4617,
      "wiaÅĤa": 4618,
      "Ġprzeczy": 4619,
      "ĠnaszÄħ": 4620,
      "Ġpada": 4621,
      "Ġmama": 4622,
      "Ġdruga": 4623,
      "ĠdaÅĤa": 4624,
      "Ġprzeto": 4625,
      "czce": 4626,
      "czaÅĤy": 4627,
      "ÅĤÄħka": 4628,
      "Ġzabra": 4629,
      "Ġkrokiem": 4630,
      "Ġnikomu": 4631,
      "Ġwpat": 4632,
      "ĠmÅĤodego": 4633,
      "Ġmart": 4634,
      "ĠmaÅĤa": 4635,
      "Ġprogu": 4636,
      "ĠCoÅĽ": 4637,
      "ĠkaÅ¼de": 4638,
      "ĠchÅĤopiec": 4639,
      "ĠsÅĤyszy": 4640,
      "Ġzga": 4641,
      "Ġfur": 4642,
      "ĠmÅĤodzi": 4643,
      "ĠmoÅ¼emy": 4644,
      "wnie": 4645,
      "zem": 4646,
      "rzawszy": 4647,
      "Ġodde": 4648,
      "Ġdziwne": 4649,
      "ĠÅĽmiaÅĤo": 4650,
      "ĠZdaje": 4651,
      "Ġrachu": 4652,
      "Ġnowi": 4653,
      "Ġodpo": 4654,
      "Ġpozba": 4655,
      "Ġbywa": 4656,
      "nosiÅĤ": 4657,
      "ĠChce": 4658,
      "Ġsprzeda": 4659,
      "Ġzebra": 4660,
      "ĠgÃ³rze": 4661,
      "bowiem": 4662,
      "zer": 4663,
      "Ġprzechodzi": 4664,
      "rygi": 4665,
      "ĠOsta": 4666,
      "Ġwrzas": 4667,
      "Ġstrachu": 4668,
      "Ġgroma": 4669,
      "ĠchÅĤopca": 4670,
      "Ġwojsk": 4671,
      "ĠÅĤzami": 4672,
      "ÅĽciach": 4673,
      "nkÄĻ": 4674,
      "Ġrozleg": 4675,
      "czeÄĩ": 4676,
      "ĠliÅĽcie": 4677,
      "ĠkoÅĽcioÅĤa": 4678,
      "ĠSpoj": 4679,
      "story": 4680,
      "Ġwalki": 4681,
      "ĠPy": 4682,
      "ÅĦskÄħ": 4683,
      "ĠczyÅ¼": 4684,
      "dom": 4685,
      "ĠÅĽciÄħg": 4686,
      "ina": 4687,
      "Ġener": 4688,
      "Ġnosi": 4689,
      "Ġuczucie": 4690,
      "bel": 4691,
      "Ġgwar": 4692,
      "rego": 4693,
      "Ġowych": 4694,
      "ĠumarÅĤ": 4695,
      "ĠpoÅĤÄħ": 4696,
      "ĠÅ¼yÅĤ": 4697,
      "Ġmian": 4698,
      "ĠPoniewaÅ¼": 4699,
      "ĠkaÅ¼e": 4700,
      "weÅĤ": 4701,
      "niejszego": 4702,
      "Ġzadu": 4703,
      "Ġstrach": 4704,
      "ĠÅĤÃ³Å¼ku": 4705,
      "ĠujrzaÅĤ": 4706,
      "ĠoÅĤta": 4707,
      "robi": 4708,
      "owicie": 4709,
      "ĠmÄĻÅ¼czyzna": 4710,
      "Ġklasy": 4711,
      "ĠpotÄĻÅ¼": 4712,
      "ĠwiedzÄħc": 4713,
      "ĠgÅĤupi": 4714,
      "gip": 4715,
      "ĠWÃ³wczas": 4716,
      "Ġtwoich": 4717,
      "rzajÄħc": 4718,
      "Ġjesie": 4719,
      "ĠszyjÄĻ": 4720,
      "Ġkrz": 4721,
      "Ġfun": 4722,
      "ĠpoznaÅĤ": 4723,
      "lonych": 4724,
      "Ġrozpaczy": 4725,
      "bach": 4726,
      "sÄĻ": 4727,
      "Ġcisza": 4728,
      "Ġruchu": 4729,
      "bne": 4730,
      "rozu": 4731,
      "ĠÅĽcian": 4732,
      "ÅĦcy": 4733,
      "trÄħ": 4734,
      "Ġmocy": 4735,
      "grani": 4736,
      "niku": 4737,
      "ĠoÅ¼y": 4738,
      "Ġchcieli": 4739,
      "ĠleÅ¼aÅĤ": 4740,
      "Ġpochwy": 4741,
      "chnÄĻÅĤa": 4742,
      "ĠwyÅĤÄħ": 4743,
      "pol": 4744,
      "Ġczci": 4745,
      "naÄĩ": 4746,
      "kajÄħc": 4747,
      "prawda": 4748,
      "ĠpamiÄĻÄĩ": 4749,
      "bieraÄĩ": 4750,
      "ĠporzÄħdku": 4751,
      "Ġczem": 4752,
      "Ġszczerze": 4753,
      "ĠpoÅĽrÃ³d": 4754,
      "Ġniedaw": 4755,
      "ĠKobie": 4756,
      "Ġprzykro": 4757,
      "ĠKtÃ³Å¼": 4758,
      "ckim": 4759,
      "ĠMasz": 4760,
      "ĠÅ¼yciem": 4761,
      "asy": 4762,
      "ĠTakie": 4763,
      "kaÅĤy": 4764,
      "Ġnaprzeciw": 4765,
      "Ġtytu": 4766,
      "ĠspÅĤy": 4767,
      "Ġkolei": 4768,
      "iu": 4769,
      "Ġspokoju": 4770,
      "koÅĤa": 4771,
      "ĠpoÅ¼egna": 4772,
      "Ġpou": 4773,
      "ĠStar": 4774,
      "Ġgwiazd": 4775,
      "lie": 4776,
      "wane": 4777,
      "ĠprzeraÅ¼e": 4778,
      "ĠrzeczywiÅĽcie": 4779,
      "!!": 4780,
      "mon": 4781,
      "Ġinnej": 4782,
      "Ġuspoko": 4783,
      "nnoÅĽÄĩ": 4784,
      "ĠprzerwaÅĤ": 4785,
      "Ġuci": 4786,
      "ĠPre": 4787,
      "ĠbliÅ¼ej": 4788,
      "Ġramionami": 4789,
      "Ġpracu": 4790,
      "Ar": 4791,
      "Ġzaci": 4792,
      "ĠGrze": 4793,
      "ĠMaciuÅĽ": 4794,
      "ĠodpowiedÅº": 4795,
      "dnej": 4796,
      "nastu": 4797,
      "lnoÅĽÄĩ": 4798,
      "Ġostrze": 4799,
      "lady": 4800,
      "ktor": 4801,
      "Ġhand": 4802,
      "miot": 4803,
      "ĠwiedzÄħ": 4804,
      "Ġwieki": 4805,
      "Ġzegar": 4806,
      "ĠupÅĤy": 4807,
      "Ġwyje": 4808,
      "Ġdwor": 4809,
      "ĠprzeciÄħg": 4810,
      "Ġutrzy": 4811,
      "lum": 4812,
      "syj": 4813,
      "pki": 4814,
      "Ġposu": 4815,
      "ĠmiarÄĻ": 4816,
      "leni": 4817,
      "Ġbraci": 4818,
      "Ġkuchni": 4819,
      "ĠmuszÄħ": 4820,
      "ĠÅĽmiesz": 4821,
      "Ġwarun": 4822,
      "Ġokien": 4823,
      "Ġobfi": 4824,
      "cieka": 4825,
      "ĠzÅĤy": 4826,
      "Ġet": 4827,
      "Ġruchem": 4828,
      "Ġodg": 4829,
      "Ġ5": 4830,
      "Ġura": 4831,
      "Ġsprawie": 4832,
      "gÃ³Å¼": 4833,
      "mat": 4834,
      "jeÅ¼dÅ¼a": 4835,
      "ĠÅĽniada": 4836,
      "tru": 4837,
      "ĠzwykÅĤ": 4838,
      "czÄħÄĩ": 4839,
      "Ġprzeczu": 4840,
      "ĠsÅĤone": 4841,
      "Ġosiem": 4842,
      "Ġporzu": 4843,
      "Ġodleg": 4844,
      "Ġowa": 4845,
      "Ġdotychczas": 4846,
      "Ġprzypat": 4847,
      "Å¼ywszy": 4848,
      "ĠogrÃ³d": 4849,
      "ĠchciaÅĤem": 4850,
      "Ġniepodob": 4851,
      "wiali": 4852,
      "pÃ³w": 4853,
      "ĠwyÅ¼ej": 4854,
      "ĠSza": 4855,
      "pis": 4856,
      "Ġpogrze": 4857,
      "row": 4858,
      "braÅĤa": 4859,
      "Ġauto": 4860,
      "liwoÅĽci": 4861,
      "Ġproce": 4862,
      "niÄĻcie": 4863,
      "Ġdrzwiach": 4864,
      "ÅĤom": 4865,
      "ĠdÅºwi": 4866,
      "Ġkont": 4867,
      "grafi": 4868,
      "Ġmiastecz": 4869,
      "Ġprzewi": 4870,
      "Ġprzyje": 4871,
      "rzaÄĩ": 4872,
      "!âĢĿ.": 4873,
      "ĠKor": 4874,
      "owymi": 4875,
      "ÅĽpie": 4876,
      "wen": 4877,
      "Å¼on": 4878,
      "nina": 4879,
      "Ġwykona": 4880,
      "adam": 4881,
      "ĠDro": 4882,
      "ĠKazi": 4883,
      "ĠdostaÅĤ": 4884,
      "land": 4885,
      "ĠzapytaÅĤa": 4886,
      "szam": 4887,
      "ĠdokÄħd": 4888,
      "ram": 4889,
      "ĠSÅĤuchaj": 4890,
      "ĠwyszÅĤa": 4891,
      "ld": 4892,
      "stajÄħc": 4893,
      "ĠwspaniaÅĤ": 4894,
      "mer": 4895,
      "ĠdzieÅĤa": 4896,
      "Ġucze": 4897,
      "Ġgorz": 4898,
      "Ġbok": 4899,
      "ÅĽliÅĤ": 4900,
      "wÃ³w": 4901,
      "terech": 4902,
      "ĠsÅĤuchaÄĩ": 4903,
      "ĠrzeczÄħ": 4904,
      "nkt": 4905,
      "Ġszan": 4906,
      "ĠGÅĤo": 4907,
      "ĠCar": 4908,
      "Ġnogami": 4909,
      "ĠmÅĤoda": 4910,
      "naÅĤo": 4911,
      "tro": 4912,
      "Ġgwiazdy": 4913,
      "ĠEuro": 4914,
      "Ġusu": 4915,
      "Ġprzep": 4916,
      "Ġwycie": 4917,
      "Ġpali": 4918,
      "Ġniezmiernie": 4919,
      "ĠprzemÃ³": 4920,
      "Ġdziewi": 4921,
      "ĠdÅºwiÄĻk": 4922,
      "ĠPen": 4923,
      "Ġarcy": 4924,
      "ĠpojÄĻcia": 4925,
      "dia": 4926,
      "sel": 4927,
      "ĠWz": 4928,
      "Ġroman": 4929,
      "Ġkaz": 4930,
      "Ġzdrowi": 4931,
      "ĠwÅĤasnym": 4932,
      "ĠzatrzymaÅĤ": 4933,
      "emo": 4934,
      "nili": 4935,
      "Ġjezio": 4936,
      "dnych": 4937,
      "szajÄħc": 4938,
      "Ġjasno": 4939,
      "wach": 4940,
      "ĠdÄħ": 4941,
      "Ġnaw": 4942,
      "ĠWtem": 4943,
      "ff": 4944,
      "czeniem": 4945,
      "Ġciszy": 4946,
      "ĠskrÄĻ": 4947,
      "Ġszacu": 4948,
      "Ġwilgo": 4949,
      "ĠpodwÃ³": 4950,
      "Ġinnymi": 4951,
      "Ġorze": 4952,
      "ĠNastÄĻp": 4953,
      "ÅĤka": 4954,
      "ĠfaÅĤszy": 4955,
      "Ġmio": 4956,
      "Ġmych": 4957,
      "Ġpodobny": 4958,
      "ĠposzÅĤa": 4959,
      "ĠtrzymaÅĤ": 4960,
      "ÅĤki": 4961,
      "ĠKi": 4962,
      "ĠgÅĤosu": 4963,
      "Ġdworze": 4964,
      "Ġistnieje": 4965,
      "staÅĦ": 4966,
      "Ġkolana": 4967,
      "Ġdali": 4968,
      "ĠczujÄĻ": 4969,
      "Ġnauki": 4970,
      "ema": 4971,
      "ĠidÄħc": 4972,
      "towi": 4973,
      "ĠChci": 4974,
      "str": 4975,
      "ĠmÄħdro": 4976,
      "Ġdowci": 4977,
      "Ġtwej": 4978,
      "nin": 4979,
      "ciÅĤem": 4980,
      "ĠwiedziaÅĤa": 4981,
      "czÄħcy": 4982,
      "Ġostatnich": 4983,
      "Ġpoj": 4984,
      "Ġster": 4985,
      "Ġfal": 4986,
      "Ġdostoj": 4987,
      "Ġkrok": 4988,
      "Ġfigu": 4989,
      "rali": 4990,
      "ĠsÄħsiad": 4991,
      "Ġpewna": 4992,
      "ĠprÃ³Å¼no": 4993,
      "byÅĽmy": 4994,
      "Ġczuje": 4995,
      "ĠdokÅĤadnie": 4996,
      "Ġrycer": 4997,
      "Ġczasy": 4998,
      "Ġbior": 4999,
      "Ġdoprowa": 5000,
      "owano": 5001,
      "sÅĤem": 5002,
      "Ġmiecz": 5003,
      "Ġlada": 5004,
      "Ġobyczaj": 5005,
      "Ġmateri": 5006,
      "Ġpomimo": 5007,
      "Ġrozpu": 5008,
      "ĠbroÅĦ": 5009,
      "Ġnieusta": 5010,
      "ĠusiadÅĤ": 5011,
      "ĠPiÄĻk": 5012,
      "son": 5013,
      "bur": 5014,
      "Ġrodzaj": 5015,
      "Ġolbrzymie": 5016,
      "dii": 5017,
      "ĠodparÅĤa": 5018,
      "sne": 5019,
      "ĠtysiÄħce": 5020,
      "ĠjeÅº": 5021,
      "ĠpanÃ³w": 5022,
      "ĠjednoczeÅĽnie": 5023,
      "Ġbrzu": 5024,
      "Ġjedwa": 5025,
      "ĠCzÅĤowiek": 5026,
      "Ġkwest": 5027,
      "Äĩmi": 5028,
      "Ġczterdzie": 5029,
      "Ġgospody": 5030,
      "Ġdym": 5031,
      "ĠPolly": 5032,
      "ĠFrancu": 5033,
      "ĠwszakÅ¼e": 5034,
      "Ġspojrzenie": 5035,
      "Ġmowy": 5036,
      "Ġste": 5037,
      "Ġojcze": 5038,
      "Ġcichu": 5039,
      "Ġkara": 5040,
      "Ġfar": 5041,
      "Ġfizy": 5042,
      "ĠBÄĻdzie": 5043,
      "ĠrÃ³": 5044,
      "ĠZap": 5045,
      "owoÅĽci": 5046,
      "owskiego": 5047,
      "Ġstrasznie": 5048,
      "ĠspostrzegÅĤ": 5049,
      "jaÅĤ": 5050,
      "Ġpowstrzy": 5051,
      "biÅĤa": 5052,
      "ĠpopeÅĤ": 5053,
      "ĠszÅĤa": 5054,
      "ĠmaÅĤÄħ": 5055,
      "Ġminut": 5056,
      "Ġszczu": 5057,
      "ĠrozsÄħd": 5058,
      "owanych": 5059,
      "ĠrzeÅº": 5060,
      "Ġstraszli": 5061,
      "ĠszkoÅĤy": 5062,
      "ĠdostaÄĩ": 5063,
      "ĠprzedsiÄĻ": 5064,
      "ĠpiÄĻknie": 5065,
      "amtÄħd": 5066,
      "Ġautor": 5067,
      "Ġpozwoli": 5068,
      "ĠprzyszÅĤoÅĽÄĩ": 5069,
      "nosiÄĩ": 5070,
      "ĠpÃ³ÅĤnoc": 5071,
      "Ġciele": 5072,
      "Ã¼": 5073,
      "Ġnada": 5074,
      "Ġniew": 5075,
      "Ġwymie": 5076,
      "Ġbawi": 5077,
      "Ġmieszkania": 5078,
      "Ġtle": 5079,
      "noszÄħ": 5080,
      "duje": 5081,
      "Ġpary": 5082,
      "Ġdozna": 5083,
      "ĠjeÅĽÄĩ": 5084,
      "rus": 5085,
      "ĠkrÃ³tko": 5086,
      "ĠzostaÅĤo": 5087,
      "ĠzrÄĻ": 5088,
      "Ġdole": 5089,
      "Ġczterech": 5090,
      "ĠkaÅ¼dÄħ": 5091,
      "dÅºcie": 5092,
      "ĠczekaÄĩ": 5093,
      "Ġniepoko": 5094,
      "szczÄħ": 5095,
      "Ġino": 5096,
      "ĠbÃ³j": 5097,
      "ĠprzykÅĤa": 5098,
      "ĠÅ»ad": 5099,
      "Ġsercem": 5100,
      "ĠkamieÅĦ": 5101,
      "Ġkome": 5102,
      "ĠksztaÅĤt": 5103,
      "laty": 5104,
      "Ġwybrze": 5105,
      "Ġwidzenia": 5106,
      "Ġwzdy": 5107,
      "ĠgÅĤosy": 5108,
      "Ġkomna": 5109,
      "Ġilo": 5110,
      "Ġfra": 5111,
      "nionych": 5112,
      "ciÅĤo": 5113,
      "Ġdusz": 5114,
      "ĠpytaÅĤ": 5115,
      "rnie": 5116,
      "Ġule": 5117,
      "czyk": 5118,
      "suje": 5119,
      "Ġprzyczyny": 5120,
      "ĠDi": 5121,
      "rii": 5122,
      "Ġpoczci": 5123,
      "ĠcaÅĤkowi": 5124,
      "Ġnazwisko": 5125,
      "rajÄħc": 5126,
      "czyÅĤem": 5127,
      "ĠpewnÄħ": 5128,
      "Ġbohater": 5129,
      "tnia": 5130,
      "ĠjechaÄĩ": 5131,
      "rÃ³wno": 5132,
      "Ġpisze": 5133,
      "Ġoboje": 5134,
      "mem": 5135,
      "Ġniepew": 5136,
      "Ġzaprze": 5137,
      "ĠpaÅĦstwo": 5138,
      "ĠrobiÅĤ": 5139,
      "Ġniewiele": 5140,
      "fek": 5141,
      "Ġprzenik": 5142,
      "Ġrycerz": 5143,
      "Ġzbrodni": 5144,
      "Ġswymi": 5145,
      "Ġhet": 5146,
      "ĠczeÅĽÄĩ": 5147,
      "godni": 5148,
      "Ġnajlepiej": 5149,
      "Ġdawnych": 5150,
      "nÃ©j": 5151,
      "Ġhistory": 5152,
      "ĠdowÃ³d": 5153,
      "ĠPÃ³j": 5154,
      "ĠÅ¼onÄħ": 5155,
      "ĠpÅĤak": 5156,
      "Ġwyw": 5157,
      "caÄĩ": 5158,
      "Ġznacznie": 5159,
      "Ġdworu": 5160,
      "Ġchi": 5161,
      "biega": 5162,
      "ĠzaczÄĻÅĤy": 5163,
      "ali": 5164,
      "ĠKsi": 5165,
      "ĠciÄħgnÄħÅĤ": 5166,
      "biony": 5167,
      "Ġobaj": 5168,
      "ĠÅ¼yw": 5169,
      "ĠsÅĤyszeÄĩ": 5170,
      "Ġchleb": 5171,
      "chÅĤo": 5172,
      "ĠniesÅĤy": 5173,
      "miony": 5174,
      "niosÅĤy": 5175,
      "ĠwÅĤasnego": 5176,
      "ĠmÅĤodych": 5177,
      "es": 5178,
      "ĠÅ¼ebym": 5179,
      "ĠZby": 5180,
      "skoczyÅĤ": 5181,
      "mych": 5182,
      "Ġpewnej": 5183,
      "ÅĽmier": 5184,
      "Ġprzeciwko": 5185,
      "ĠciÄĻÅ¼kie": 5186,
      "ĠJÃ³ze": 5187,
      "ĠzÅĤu": 5188,
      "niki": 5189,
      "ĠczyniÄĩ": 5190,
      "Ġczytel": 5191,
      "ĠTaki": 5192,
      "Ġbrwi": 5193,
      "ĠdopÃ³ki": 5194,
      "Ġwasza": 5195,
      "Å¼yÅĤy": 5196,
      "ĠczytaÄĩ": 5197,
      "Ġpowinna": 5198,
      "Ġucieka": 5199,
      "Ġprzyjm": 5200,
      "ĠmiÅĤy": 5201,
      "ĠnajpiÄĻk": 5202,
      "ĠChy": 5203,
      "ĠzobaczyÅĤ": 5204,
      "ĠzrozumiaÅĤ": 5205,
      "stkÄĻ": 5206,
      "Ġwieczora": 5207,
      "Ġgrzbie": 5208,
      "Ġdrewnia": 5209,
      "owaniem": 5210,
      "Ġojcu": 5211,
      "snÄĻÅĤa": 5212,
      "Ġprzeszko": 5213,
      "ĠwzdÅĤuÅ¼": 5214,
      "ĠdÅĤonie": 5215,
      "Ġski": 5216,
      "Ġsier": 5217,
      "ĠsÅĤabo": 5218,
      "ĠAli": 5219,
      "ĠJej": 5220,
      "ĠczekaÅĤ": 5221,
      "ĠCzÄĻ": 5222,
      "try": 5223,
      "Ġspada": 5224,
      "szta": 5225,
      "anki": 5226,
      "ĠRzeczy": 5227,
      "Ġdi": 5228,
      "Ġnos": 5229,
      "Ġbrzeg": 5230,
      "Ġsiada": 5231,
      "ĠÅĤeb": 5232,
      "Ġdrzewo": 5233,
      "Ġjasne": 5234,
      "ĠudaÅĤo": 5235,
      "Ġwymy": 5236,
      "Ġuf": 5237,
      "Ġkoniecznie": 5238,
      "ĠChÅĤop": 5239,
      "ĠSzczÄĻ": 5240,
      "Ġdrzwiami": 5241,
      "dÅĤy": 5242,
      "ĠNar": 5243,
      "ĠpamiÄĻta": 5244,
      "zdu": 5245,
      "Ġdopu": 5246,
      "ĠOczywiÅĽcie": 5247,
      "ĠbÃ³lu": 5248,
      "Ġstanu": 5249,
      "Ġgodzinie": 5250,
      "ĠspoglÄħda": 5251,
      "Ġwyle": 5252,
      "warz": 5253,
      "ĠmatkÄĻ": 5254,
      "ĠpiÄĻknÄħ": 5255,
      "Ġciemno": 5256,
      "ĠpÃ³Åºno": 5257,
      "ĠtydzieÅĦ": 5258,
      "ĠwartoÅĽci": 5259,
      "Ġpiersiach": 5260,
      "Å¼Äħda": 5261,
      "ĠchaÅĤu": 5262,
      "ĠkrzyÅ¼": 5263,
      "Ġwsk": 5264,
      "waniu": 5265,
      "atÄĻ": 5266,
      "ĠgwaÅĤtownie": 5267,
      "ĠzÅĤoto": 5268,
      "Ġgrozi": 5269,
      "ĠchÅĤopcy": 5270,
      "ĠkwiatÃ³w": 5271,
      "Ġprzytom": 5272,
      "szona": 5273,
      "Ġtonem": 5274,
      "ĠToteÅ¼": 5275,
      "ĠidÄħ": 5276,
      "Ġponie": 5277,
      "Ġrozwa": 5278,
      "ĠotworzyÅĤ": 5279,
      "sobie": 5280,
      "ĠDziew": 5281,
      "Ġwle": 5282,
      "Ġprzema": 5283,
      "ĠSzu": 5284,
      "ĠrozmowÄĻ": 5285,
      "ĠzÅĤote": 5286,
      "ĠpowtÃ³rzyÅĤ": 5287,
      "ĠoddaÄĩ": 5288,
      "ciwszy": 5289,
      "Ġwysu": 5290,
      "ĠKar": 5291,
      "ĠZÅĤo": 5292,
      "Ġinteres": 5293,
      "ĠZyg": 5294,
      "szar": 5295,
      "dziÄĻk": 5296,
      "Ġnatomiast": 5297,
      "ĠpomÃ³": 5298,
      "Ġzaszczy": 5299,
      "Ġsekre": 5300,
      "ĠudziaÅĤ": 5301,
      "ĠPÅĤa": 5302,
      "ĠMoÅ¼na": 5303,
      "rani": 5304,
      "ĠkoÅĤa": 5305,
      "ĠwierzyÄĩ": 5306,
      "Ġumar": 5307,
      "Ġter": 5308,
      "Ġul": 5309,
      "ĠoglÄħda": 5310,
      "Ġpsa": 5311,
      "ĠbiaÅĤo": 5312,
      "ĠpowaÅ¼": 5313,
      "Ġzasad": 5314,
      "krÄĻ": 5315,
      "ĠmogÄħc": 5316,
      "stali": 5317,
      "ĠPana": 5318,
      "ĠMÄĻ": 5319,
      "ĠZak": 5320,
      "ĠgÅĤÄħb": 5321,
      "Ġlisty": 5322,
      "ĠsÅĤuchaÅĤ": 5323,
      "ĠoprÃ³cz": 5324,
      "ĠnieÅĽ": 5325,
      "Ġnapa": 5326,
      "ĠporÃ³wna": 5327,
      "Ġoca": 5328,
      "Ġur": 5329,
      "Ġwytwo": 5330,
      "Ġrozpra": 5331,
      "Ġwodzie": 5332,
      "Ġusi": 5333,
      "ĠTrzy": 5334,
      "ĠCzasem": 5335,
      "ĠtrzÄĻ": 5336,
      "ĠÅĤaski": 5337,
      "ĠÅĽmiechu": 5338,
      "ĠJedno": 5339,
      "ĠokrÄĻt": 5340,
      "ĠmÃ³wili": 5341,
      "Ġsytua": 5342,
      "ĠnaleÅ¼aÅĤo": 5343,
      "iÅĤa": 5344,
      "ĠusiÅĤ": 5345,
      "zupeÅĤ": 5346,
      "ĠtaÅĦ": 5347,
      "Ġludzkiej": 5348,
      "ĠFrancji": 5349,
      "wiÄĻcej": 5350,
      "Ġenergi": 5351,
      "liwoÅĽÄĩ": 5352,
      "ĠprzywiÄħza": 5353,
      "ĠchorÄħg": 5354,
      "Ġtch": 5355,
      "ĠdobrÄħ": 5356,
      "ĠchodziÄĩ": 5357,
      "ownie": 5358,
      "Ġwino": 5359,
      "czonÄħ": 5360,
      "ĠHej": 5361,
      "ĠduÅ¼e": 5362,
      "Ġdziewczyny": 5363,
      "ĠusÅĤyszaÅĤ": 5364,
      "gÃ³l": 5365,
      "Ġdyrek": 5366,
      "ĠDawi": 5367,
      "ĠcÃ³rka": 5368,
      "dki": 5369,
      "czÄħce": 5370,
      "Ġwypowie": 5371,
      "ĠnowÄħ": 5372,
      "ĠgÅĤad": 5373,
      "Ġ[": 5374,
      "Ġrozkoszy": 5375,
      "Ġukocha": 5376,
      "ĠzarÃ³wno": 5377,
      "dziela": 5378,
      "Ġkot": 5379,
      "Ġstwier": 5380,
      "Ġwiecznie": 5381,
      "ĠsiÅĤÄĻ": 5382,
      "nno": 5383,
      "ĠwpadÅĤ": 5384,
      "szpa": 5385,
      "cina": 5386,
      "mion": 5387,
      "Ġoznaj": 5388,
      "rad": 5389,
      "bieraÅĤ": 5390,
      "ĠÅºre": 5391,
      "Ġlatar": 5392,
      "wiajÄħ": 5393,
      "ĠzdawaÅĤ": 5394,
      "ĠwidziaÅĤa": 5395,
      "Ġuprzej": 5396,
      "ĠokolicznoÅĽci": 5397,
      "ĠzrozumieÄĩ": 5398,
      "ĠbÅĤyskawi": 5399,
      "nÄħce": 5400,
      "ĠwysÅĤa": 5401,
      "jÅ¼e": 5402,
      "ĠwÅĤasnych": 5403,
      "ĠwspaniaÅĤy": 5404,
      "Ġnarodu": 5405,
      "ĠgaÅĤÄĻzi": 5406,
      "ke": 5407,
      "Ġcias": 5408,
      "Ġnogach": 5409,
      "rzÄħt": 5410,
      "ĠZdawaÅĤo": 5411,
      "cro": 5412,
      "Ġwisi": 5413,
      "Ġdniu": 5414,
      "ĠwolÄĻ": 5415,
      "ĠPodob": 5416,
      "Ġizbie": 5417,
      "Ġom": 5418,
      "ĠpisaÄĩ": 5419,
      "dnik": 5420,
      "Ġznakomi": 5421,
      "bny": 5422,
      "Ġtylu": 5423,
      "Ġbramy": 5424,
      "Ġwiedzy": 5425,
      "Ġpierwsza": 5426,
      "ÄĻp": 5427,
      "ĠRzu": 5428,
      "Ġwszelkich": 5429,
      "ĠoszczÄĻ": 5430,
      "Ġwybor": 5431,
      "dzeniem": 5432,
      "ĠspytaÅĤa": 5433,
      "Ġpozostawi": 5434,
      "Ġznu": 5435,
      "ĠÅĽmierciÄħ": 5436,
      "ĠzapomniaÅĤ": 5437,
      "Ġrzadko": 5438,
      "zel": 5439,
      "Ġbezw": 5440,
      "ĠuÅĽmiechnÄħÅĤ": 5441,
      "Ġchmur": 5442,
      "ĠniesÅĤycha": 5443,
      "wÃ³l": 5444,
      "tera": 5445,
      "ĠwstaÅĤ": 5446,
      "ĠnarÃ³d": 5447,
      "ĠpÃ³jdzie": 5448,
      "Ġkochany": 5449,
      "ĠbiaÅĤych": 5450,
      "nta": 5451,
      "Ġgre": 5452,
      "Ġblask": 5453,
      "Ġzaufa": 5454,
      "ĠmnÃ³stwo": 5455,
      "Ġwrze": 5456,
      "ĠkobietÄĻ": 5457,
      "ĠhaÅĦ": 5458,
      "Ġsiostry": 5459,
      "obie": 5460,
      "rzod": 5461,
      "Ġpopro": 5462,
      "ĠPanna": 5463,
      "Ġpowszech": 5464,
      "Ġuto": 5465,
      "Ġtrzas": 5466,
      "miÄħ": 5467,
      "ĠwieÅĽ": 5468,
      "ĠwÅĤosÃ³w": 5469,
      "ĠzaczÄĻli": 5470,
      "ĠHele": 5471,
      "Ġzaczy": 5472,
      "Ġgabi": 5473,
      "przy": 5474,
      "ĠzwiÄħza": 5475,
      "Ġsypi": 5476,
      "Ġrozumu": 5477,
      "rej": 5478,
      "ĠDan": 5479,
      "ÅºÅĦ": 5480,
      "lonym": 5481,
      "Ġczasach": 5482,
      "Ġistoty": 5483,
      "ĠÅĽpiew": 5484,
      "Ġobecnie": 5485,
      "ĠktÃ³Å¼": 5486,
      "ĠJam": 5487,
      "Ã³dÅĤ": 5488,
      "ruje": 5489,
      "ĠczoÅĤa": 5490,
      "ĠwiadomoÅĽci": 5491,
      "ĠwystÄĻp": 5492,
      "Ġprzecha": 5493,
      "wieniem": 5494,
      "ĠZu": 5495,
      "akaÄĩ": 5496,
      "Ġinteli": 5497,
      "Ġtale": 5498,
      "Ġdwaj": 5499,
      "tecznie": 5500,
      "Ġtur": 5501,
      "ĠmiÅĤosier": 5502,
      "gnÄħÄĩ": 5503,
      "czonego": 5504,
      "Ġobser": 5505,
      "ĠbaÅĤ": 5506,
      "Ġstali": 5507,
      "rzach": 5508,
      "ĠÅ¼ycz": 5509,
      "Ġdobrym": 5510,
      "ĠkochaÅĤ": 5511,
      "ĠinnÄħ": 5512,
      "ÅĽciem": 5513,
      "ĠMuszÄĻ": 5514,
      "Ġstaran": 5515,
      "Ġstosunku": 5516,
      "ĠChrystu": 5517,
      "szymi": 5518,
      "Ġwielo": 5519,
      "Ġskra": 5520,
      "Ġtrwa": 5521,
      "lki": 5522,
      "ĠzaÅĤa": 5523,
      "rona": 5524,
      "rzeniu": 5525,
      "ĠpierÅĽ": 5526,
      "mana": 5527,
      "ĠPor": 5528,
      "ĠdziewiÄĻ": 5529,
      "Ġopan": 5530,
      "ĠwyjÅĽÄĩ": 5531,
      ".,": 5532,
      "Ġspec": 5533,
      "ĠZawsze": 5534,
      "niaÅĤem": 5535,
      "Ġgodzina": 5536,
      "Ġzbrod": 5537,
      "Ġpoeta": 5538,
      "ct": 5539,
      "Ġstraszne": 5540,
      "Ġzgroma": 5541,
      "ÅĽwiÄĻ": 5542,
      "czysz": 5543,
      "Ġobc": 5544,
      "lta": 5545,
      "Ġwami": 5546,
      "Ġojc": 5547,
      "dniu": 5548,
      "ĠJÄĻ": 5549,
      "aja": 5550,
      "ĠpobliÅ¼u": 5551,
      "miar": 5552,
      "ĠrozlegÅĤ": 5553,
      "ĠwoÅĤaÅĤ": 5554,
      "..": 5555,
      "ĠporÄĻ": 5556,
      "Ġodrzu": 5557,
      "ĠniemoÅ¼": 5558,
      "tany": 5559,
      "czeÅĽniej": 5560,
      "Ġszli": 5561,
      "Ġgniewu": 5562,
      "ĠdÄĻ": 5563,
      "ĠdÅĤuÅ¼": 5564,
      "Ġtwarze": 5565,
      "Ġcokolwiek": 5566,
      "Ġmilczenie": 5567,
      "Ġduchu": 5568,
      "ĠruszyÅĤ": 5569,
      "Ġstarych": 5570,
      "Ġpoezji": 5571,
      "ĠpÃ³jdÄĻ": 5572,
      "zach": 5573,
      "Ġgene": 5574,
      "tos": 5575,
      "ĠnÃ³Å¼": 5576,
      "ĠkochaÄĩ": 5577,
      "Ġobszer": 5578,
      "Ġzacze": 5579,
      "Ġrozt": 5580,
      "Ġfe": 5581,
      "Ġpierwszych": 5582,
      "ĠszepnÄĻÅĤa": 5583,
      "ĠMatka": 5584,
      "gaÅĤa": 5585,
      "liÅĽcie": 5586,
      "ĠwydaÅĤ": 5587,
      "Å¼ynie": 5588,
      "chach": 5589,
      "ome": 5590,
      "Ġblady": 5591,
      "Ġprzeszka": 5592,
      "Ġpios": 5593,
      "ĠoÅĽwiet": 5594,
      "ĠwnÄĻt": 5595,
      "Ġcicha": 5596,
      "ĠByÅĤy": 5597,
      "ĠPolski": 5598,
      "tagna": 5599,
      "ĠbogÃ³w": 5600,
      "ĠwaÄĩ": 5601,
      "ĠmaÅĤego": 5602,
      "Ġodmie": 5603,
      "Ġszele": 5604,
      "ĠmyÅĽlisz": 5605,
      "ĠszczÄĻÅĽliwy": 5606,
      "Artagna": 5607,
      "cajÄħc": 5608,
      "jne": 5609,
      "Ġalbowiem": 5610,
      "ĠzbliÅ¼a": 5611,
      "Ġhrabia": 5612,
      "szczaÄĩ": 5613,
      "ĠAnto": 5614,
      "Å¼eniu": 5615,
      "Ġpapier": 5616,
      "pienie": 5617,
      "Ġzdania": 5618,
      "Ġludzkich": 5619,
      "ĠdoÅĦ": 5620,
      "Ġwyr": 5621,
      "Ġbodaj": 5622,
      "Ġforte": 5623,
      "Ġcharakter": 5624,
      "Ġit": 5625,
      "ĠstrzaÅĤ": 5626,
      "Ġwizy": 5627,
      "ĠsÄĻdzi": 5628,
      "ĠBor": 5629,
      "Ġzep": 5630,
      "Ġczarny": 5631,
      "Ġnauczyciel": 5632,
      "ĠstamtÄħd": 5633,
      "ĠsiedziaÅĤa": 5634,
      "Ġblasku": 5635,
      "ĠradoÅĽciÄħ": 5636,
      "ĠZam": 5637,
      "ĠnajbliÅ¼": 5638,
      "Ġprzysta": 5639,
      "ĠÅ»ydÃ³w": 5640,
      "ĠÅĽmiech": 5641,
      "Ġkwie": 5642,
      "Ġdoty": 5643,
      "gni": 5644,
      "Ġmle": 5645,
      "Ġjam": 5646,
      "ĠGdybym": 5647,
      "ĠJim": 5648,
      "Ġmusie": 5649,
      "Ġsiero": 5650,
      "jusz": 5651,
      "strza": 5652,
      "bnie": 5653,
      "ĠWiesz": 5654,
      "Ġwzgar": 5655,
      "ĠzdÄħ": 5656,
      "ĠmruknÄħÅĤ": 5657,
      "ĠJas": 5658,
      "ĠpieÅĽÅĦ": 5659,
      "ĠÅĽwieÅ¼o": 5660,
      "Ġpodobno": 5661,
      "anna": 5662,
      "ĠÅ¼ywi": 5663,
      "Ġosa": 5664,
      "staÅĤo": 5665,
      "Ġgry": 5666,
      "Ġokolicy": 5667,
      "szyli": 5668,
      "ĠodgÅĤo": 5669,
      "Ġskarb": 5670,
      "Ġkana": 5671,
      "ĠwytÅĤuma": 5672,
      "ryj": 5673,
      "ciele": 5674,
      "Ġrabi": 5675,
      "ĠoÅ¼e": 5676,
      "bÃ³": 5677,
      "Ġwyba": 5678,
      "pospoli": 5679,
      "ĠÅĽwietle": 5680,
      "ĠmÅĤodoÅĽci": 5681,
      "wami": 5682,
      "Ġnios": 5683,
      "ĠzbliÅ¼": 5684,
      "ĠWidzÄĻ": 5685,
      "ĠszczegÃ³ÅĤ": 5686,
      "Ġuk": 5687,
      "Ġprzyrze": 5688,
      "ĠÅĽcieÅ¼": 5689,
      "ĠÅ¼oÅĤnierz": 5690,
      "Ġniechaj": 5691,
      "Ġprzygotowa": 5692,
      "ĠÃ": 5693,
      "Ġsub": 5694,
      "Ġdniach": 5695,
      "Ġwstyd": 5696,
      "ĠTÄĻ": 5697,
      "ĠpiÄĻciu": 5698,
      "Ġnp": 5699,
      "Ġoskar": 5700,
      "ĠPrzyby": 5701,
      "Ġczarnych": 5702,
      "Ġkroki": 5703,
      "Ġmorzu": 5704,
      "Ġpojedy": 5705,
      "Ġwypo": 5706,
      "ĠWarszawy": 5707,
      "szku": 5708,
      "Ġspojrzeniem": 5709,
      "solu": 5710,
      "niÄĻtÄħ": 5711,
      "ĠSzcze": 5712,
      "Ġlekar": 5713,
      "spa": 5714,
      "Ġszka": 5715,
      "ĠpÅĤynie": 5716,
      "pla": 5717,
      "Ġowi": 5718,
      "ĠskaÅĤ": 5719,
      "ĠJaku": 5720,
      "dÅºwie": 5721,
      "odÅĤa": 5722,
      "bÅĤa": 5723,
      "Ġroze": 5724,
      "Ġnajwy": 5725,
      "umf": 5726,
      "lazÅĤ": 5727,
      "Ġlewo": 5728,
      "knÄħÄĩ": 5729,
      "ziem": 5730,
      "ĠzmysÅĤ": 5731,
      "tof": 5732,
      "siadÅĤa": 5733,
      "ĠKtÃ³ry": 5734,
      "ĠOl": 5735,
      "piony": 5736,
      "Ġpiekie": 5737,
      "nuje": 5738,
      "Ġostatniej": 5739,
      "ĠprzyszÅĤoÅĽci": 5740,
      "chÃ³d": 5741,
      "ĠwiÄħ": 5742,
      "ĠRad": 5743,
      "Ġpewny": 5744,
      "Ġcer": 5745,
      "Ġprzesu": 5746,
      "miaÅĤem": 5747,
      "ĠZoba": 5748,
      "ĠpiÄħ": 5749,
      "ĠstraÅ¼": 5750,
      "Ġzdanie": 5751,
      "dzajÄħ": 5752,
      "ĠMaÅĤ": 5753,
      "grze": 5754,
      "ĠkÅĤÃ³": 5755,
      "wiona": 5756,
      "ĠwysÅĤu": 5757,
      "ĠBro": 5758,
      "Ġrewolu": 5759,
      "dniego": 5760,
      "torÃ³w": 5761,
      "ĠpÅĤacz": 5762,
      "kowe": 5763,
      "Ġkapitan": 5764,
      "dnego": 5765,
      "cham": 5766,
      "stek": 5767,
      "ĠukÅĤo": 5768,
      "kanie": 5769,
      "szach": 5770,
      "ĠRozumie": 5771,
      "ĠWarszawie": 5772,
      "ĠMoja": 5773,
      "Ġregu": 5774,
      "ĠwziÄĻÅĤa": 5775,
      "ĠPierwszy": 5776,
      "ĠprzeklÄĻ": 5777,
      "Ġawan": 5778,
      "ĠÅĤagod": 5779,
      "Äħcymi": 5780,
      "Ġpen": 5781,
      "Ġzbiera": 5782,
      "ĠTra": 5783,
      "ĠÅĽwiadomo": 5784,
      "ĠweÅºmie": 5785,
      "rÄħÅ¼": 5786,
      "szczenia": 5787,
      "ĠÅĽpiewa": 5788,
      "Ġcharakte": 5789,
      "ĠpuÅĤkow": 5790,
      "ĠpeÅĤnym": 5791,
      "ĠsÅĤowach": 5792,
      "ĠmaÅĤym": 5793,
      "Ġmeta": 5794,
      "Ġprofesor": 5795,
      "ĠOwszem": 5796,
      "sja": 5797,
      "ĠoÅĽ": 5798,
      "Ġprzyw": 5799,
      "ĠulicÄĻ": 5800,
      "dak": 5801,
      "Ġ6": 5802,
      "Ġdokona": 5803,
      "ĠdzieÅĤo": 5804,
      "ĠpowiedziaÅĤem": 5805,
      "ĠWokulski": 5806,
      "Ġowym": 5807,
      "ĠPer": 5808,
      "miÄĩ": 5809,
      "Ġdrugich": 5810,
      "Ġpopat": 5811,
      "ĠcÃ³": 5812,
      "ĠokrÄħg": 5813,
      "ĠdomÃ³w": 5814,
      "Ġhistorii": 5815,
      "Ġpospoli": 5816,
      "Ġprowi": 5817,
      "Ġnieda": 5818,
      "dziesiÄĻ": 5819,
      "Ġmalu": 5820,
      "Ġwstrzy": 5821,
      "Ġchaty": 5822,
      "mujÄħ": 5823,
      "ĠNiechaj": 5824,
      "ĠzÅĤotych": 5825,
      "Ġhonor": 5826,
      "ĠÅ¼ydow": 5827,
      "Ġkapelusz": 5828,
      "ĠoddaÅĤ": 5829,
      "skiemu": 5830,
      "sar": 5831,
      "ĠkÃ³ÅĤ": 5832,
      "Ġszum": 5833,
      "ĠpÅĤaszcz": 5834,
      "ĠwrÃ³ciÄĩ": 5835,
      "ĠmÄĻÅ¼czyzn": 5836,
      "niajÄħ": 5837,
      "ĠroÅĽli": 5838,
      "ĠmaÅĤej": 5839,
      "lak": 5840,
      "ĠcaÅĤu": 5841,
      "Ġwaszej": 5842,
      "ĠPaweÅĤ": 5843,
      "ĠpoÅĤoÅ¼yÅĤ": 5844,
      "ul": 5845,
      "wiÅĤo": 5846,
      "ĠprosiÄĩ": 5847,
      "ĠsÄħdzÄĻ": 5848,
      "ĠWido": 5849,
      "ĠWidzisz": 5850,
      "Ġchwyta": 5851,
      "Ġdamy": 5852,
      "liwym": 5853,
      "Ġsilnie": 5854,
      "ĠKrÃ³le": 5855,
      "bla": 5856,
      "Ġpowy": 5857,
      "ĠbraÄĩ": 5858,
      "ĠkawaÅĤek": 5859,
      "Ġspecja": 5860,
      "ĠzÅĤoÅĽli": 5861,
      "Ġtemat": 5862,
      "spek": 5863,
      "ĠbÅĤÄħ": 5864,
      "ĠbyÅĤaby": 5865,
      "Ġbracie": 5866,
      "ĠsÅĤoÅĦcu": 5867,
      "wna": 5868,
      "ĠIza": 5869,
      "skach": 5870,
      "Ġchory": 5871,
      "Ġpalce": 5872,
      "ĠwÅĽciekÅĤo": 5873,
      "kÅĤe": 5874,
      "ĠJaka": 5875,
      "ĠmiÅĤoÅĽciÄħ": 5876,
      "Ġgnia": 5877,
      "Ġdala": 5878,
      "ĠchodziÅĤ": 5879,
      "ĠChyba": 5880,
      "Ġzapu": 5881,
      "Ġowszem": 5882,
      "ĠpadÅĤ": 5883,
      "ham": 5884,
      "Ġotwarte": 5885,
      "nko": 5886,
      "letni": 5887,
      "narz": 5888,
      "ĠWidzi": 5889,
      "ĠumrzeÄĩ": 5890,
      "ĠKsiÄħÅ¼ÄĻ": 5891,
      "fiÄĻ": 5892,
      "ĠnajwiÄĻcej": 5893,
      "ĠAugu": 5894,
      "jajÄħc": 5895,
      "Å¼ona": 5896,
      "ĠposÄĻp": 5897,
      "ĠwÅĤad": 5898,
      "ĠByÅĤem": 5899,
      "min": 5900,
      "ĠpostanowiÅĤ": 5901,
      "cona": 5902,
      "Ġkat": 5903,
      "ĠskaÅĤy": 5904,
      "ĠpisaÅĤ": 5905,
      "ĠCzer": 5906,
      "staÅĤy": 5907,
      "dÅĤugo": 5908,
      "Ġwypadku": 5909,
      "ĠÅĽnieg": 5910,
      "nicÄĻ": 5911,
      "ĠksiÄĻdza": 5912,
      "Ġpotwier": 5913,
      "Ġartysty": 5914,
      "rzaÅĤo": 5915,
      "rzyli": 5916,
      "ĠwiÄĻkszÄħ": 5917,
      "Ġkata": 5918,
      "Ġtaj": 5919,
      "Ġbal": 5920,
      "Ġloka": 5921,
      "ĠWoj": 5922,
      "ĠsÅĤusznoÅĽÄĩ": 5923,
      "lonego": 5924,
      "ĠÅĽniegu": 5925,
      "Ġczyn": 5926,
      "Ġnied": 5927,
      "ĠZagÅĤo": 5928,
      "ĠabyÅĽ": 5929,
      "szczone": 5930,
      "kowski": 5931,
      "nes": 5932,
      "Ġtowarzystwie": 5933,
      "ĠÅģu": 5934,
      "ĠwzglÄĻdu": 5935,
      "ĠpÃ³jÅĽÄĩ": 5936,
      "kowo": 5937,
      "ĠwtrÄħ": 5938,
      "Ġucha": 5939,
      "ĠpÅĤÃ³": 5940,
      "noc": 5941,
      "ĠÅ¼ebra": 5942,
      "Ġopat": 5943,
      "ĠZn": 5944,
      "zywaÄĩ": 5945,
      "ĠrodzicÃ³w": 5946,
      "ĠPewnego": 5947,
      "giÄĻ": 5948,
      "lonej": 5949,
      "ĠGÅĤu": 5950,
      "Ġzaz": 5951,
      "Ġszo": 5952,
      "Ġleci": 5953,
      "Ġpraca": 5954,
      "dzonych": 5955,
      "twiej": 5956,
      "Ġogrodu": 5957,
      "stÄħpiÅĤa": 5958,
      "Ġid": 5959,
      "Ġpobu": 5960,
      "nowaÅĤ": 5961,
      "Ġparu": 5962,
      "ĠpatrzaÅĤ": 5963,
      "ĠFranci": 5964,
      "ĠÅ¼oÅĤnierzy": 5965,
      "Ġwnio": 5966,
      "znÄĻ": 5967,
      "ĠRob": 5968,
      "waÅ¼nie": 5969,
      "ĠprzeszedÅĤ": 5970,
      "Ġzapomina": 5971,
      "Ġprawi": 5972,
      "Ġtacy": 5973,
      "ĠnieskoÅĦczo": 5974,
      "ĠÅĽmia": 5975,
      "ĠCiÄĻ": 5976,
      "ĠksiÄħÅ¼kÄĻ": 5977,
      "Ġdarem": 5978,
      "usza": 5979,
      "wskiego": 5980,
      "Ġskru": 5981,
      "niÄĻtych": 5982,
      "zia": 5983,
      "ium": 5984,
      "ĠodmÃ³": 5985,
      "ĠFili": 5986,
      "ĠBal": 5987,
      "Ġfaj": 5988,
      "ĠmiesiÄĻcy": 5989,
      "Ġkiej": 5990,
      "maÅĤa": 5991,
      "Ġdziwa": 5992,
      "czono": 5993,
      "nkach": 5994,
      "ĠzwÅĤo": 5995,
      "ĠlÅĽni": 5996,
      "ĠcÃ³rkÄĻ": 5997,
      "ĠwczeÅĽniej": 5998,
      "owicz": 5999,
      "Ġbisku": 6000,
      "Ġbud": 6001,
      "ĠpoczÄĻÅĤa": 6002,
      "zÄħ": 6003,
      "Ġmogi": 6004,
      "Ġkuzy": 6005,
      "Ġzle": 6006,
      "Ġnai": 6007,
      "rzeli": 6008,
      "Ġwiek": 6009,
      "ĠleÅĽ": 6010,
      "ciach": 6011,
      "ĠSzko": 6012,
      "Ġczerwone": 6013,
      "Ġgabine": 6014,
      "tnik": 6015,
      "jaÄĩ": 6016,
      "Ġkiedykolwiek": 6017,
      "Ġzawar": 6018,
      "ĠnarzÄĻ": 6019,
      "Ġrozbi": 6020,
      "chodzÄĻ": 6021,
      "Ġprowadzi": 6022,
      "lajÄħc": 6023,
      "Ġschy": 6024,
      "Ġmym": 6025,
      "ĠjednakÅ¼e": 6026,
      "Ġzimno": 6027,
      "Ġmianowicie": 6028,
      "Ġupra": 6029,
      "Ġzaprowa": 6030,
      "ĠÅĤÃ³": 6031,
      "Ġbiedny": 6032,
      "Ġnazajutrz": 6033,
      "Ġzawa": 6034,
      "Ġmiar": 6035,
      "ĠprzyjÅĽÄĩ": 6036,
      "Ġtow": 6037,
      "niÅĤem": 6038,
      "dziaÅĤy": 6039,
      "Ġdwoma": 6040,
      "Ġkryty": 6041,
      "faÅĤ": 6042,
      "Ġkasz": 6043,
      "ĠwÅĤadzy": 6044,
      "ĠJesteÅĽ": 6045,
      "ĠzakoÅĦ": 6046,
      "ĠpokÅĤa": 6047,
      "ĠGro": 6048,
      "Ġwyz": 6049,
      "ĠprzyjÄħÄĩ": 6050,
      "ĠnocÄħ": 6051,
      "ĠWoÅĤo": 6052,
      "ĠprzybyÅĤ": 6053,
      "Ġmni": 6054,
      "ĠÅ¼adna": 6055,
      "czonym": 6056,
      "ĠgorÄħco": 6057,
      "ĠzbliÅ¼yÅĤ": 6058,
      "Ġuni": 6059,
      "Ġprzywo": 6060,
      "ĠÅĽwiÄĻty": 6061,
      "ĠÅĽlady": 6062,
      "ĠrzeczywistoÅĽci": 6063,
      "Ġniedawno": 6064,
      "leniem": 6065,
      "bierze": 6066,
      "Ġindy": 6067,
      "ĠczuÅĤa": 6068,
      "Ġwargi": 6069,
      "ĠsÅĤyszaÅĤem": 6070,
      "ĠzawoÅĤa": 6071,
      "Ġziar": 6072,
      "ĠLudwi": 6073,
      "zen": 6074,
      "czaje": 6075,
      "Ġrubli": 6076,
      "Ġojcem": 6077,
      "Ġszkla": 6078,
      "szny": 6079,
      "zacji": 6080,
      "Ġlatach": 6081,
      "Ġumiera": 6082,
      "cko": 6083,
      "Å¼nej": 6084,
      "wek": 6085,
      "Ġzmiesza": 6086,
      "pÄħ": 6087,
      "Ġsma": 6088,
      "Ġisk": 6089,
      "Ġwyczer": 6090,
      "Ġcom": 6091,
      "Ġgorzej": 6092,
      "Ġpotrzeby": 6093,
      "ĠDzieÅĦ": 6094,
      "nce": 6095,
      "Ġsystem": 6096,
      "ĠwÄĻd": 6097,
      "ĠKrak": 6098,
      "kowaÄĩ": 6099,
      "ĠDwa": 6100,
      "Ġkaza": 6101,
      "ĠEgip": 6102,
      "ĠÅ»yd": 6103,
      "Ġusz": 6104,
      "mierz": 6105,
      "ĠKil": 6106,
      "Ġwspomnie": 6107,
      "nowaÄĩ": 6108,
      "ĠpozostaÅĤ": 6109,
      "Ġnik": 6110,
      "ĠrzekÅĤem": 6111,
      "Ġwybi": 6112,
      "Ġprzebieg": 6113,
      "ĠwiÄĻzienia": 6114,
      "Ġprzepra": 6115,
      "Ġtamten": 6116,
      "Ġplan": 6117,
      "Ġnowej": 6118,
      "Ġnacze": 6119,
      "ĠprzysÅĤu": 6120,
      "dzeÅĦ": 6121,
      "ĠbiaÅĤÄħ": 6122,
      "ĠÅļwiat": 6123,
      "ĠdrÄĻ": 6124,
      "mos": 6125,
      "Ġlaty": 6126,
      "Ġprzeciwnie": 6127,
      "ĠuderzyÅĤ": 6128,
      "ÅĤak": 6129,
      "Ġszta": 6130,
      "bier": 6131,
      "Ġmiej": 6132,
      "jona": 6133,
      "ĠlÄħd": 6134,
      "Ġwinien": 6135,
      "wca": 6136,
      "Ġstrzel": 6137,
      "ĠoÅĽmie": 6138,
      "Ġnigdzie": 6139,
      "ĠwokÃ³ÅĤ": 6140,
      "ĠopowiadaÅĤ": 6141,
      "Ġbynajmniej": 6142,
      "Ġtowarzystwa": 6143,
      "Ġnapisa": 6144,
      "Ġwyru": 6145,
      "Ġrzecze": 6146,
      "ĠdÅĤugÄħ": 6147,
      "jan": 6148,
      "Ġprzedmiot": 6149,
      "Ġogniem": 6150,
      "Ġwojsko": 6151,
      "fon": 6152,
      "ux": 6153,
      "ĠÅ¼alu": 6154,
      "onych": 6155,
      "jÄĻÅĤa": 6156,
      "bert": 6157,
      "Ġpodobnego": 6158,
      "Ġofice": 6159,
      "rpu": 6160,
      "snÄħÄĩ": 6161,
      "Ġdobrej": 6162,
      "sna": 6163,
      "ĠprzeÅ¼y": 6164,
      "ĠczÅĤek": 6165,
      "Ġwola": 6166,
      "Ġwyprowa": 6167,
      "Ġnerw": 6168,
      "Ġpr": 6169,
      "ĠwymÃ³": 6170,
      "Ġstarej": 6171,
      "ĠpeÅĤni": 6172,
      "ĠtrzydzieÅĽci": 6173,
      "wkÄĻ": 6174,
      "Ġukra": 6175,
      "Ġmistrz": 6176,
      "ĠwyciÄħgnÄħÅĤ": 6177,
      "ĠÅ¼Äħd": 6178,
      "pisy": 6179,
      "Ġprakty": 6180,
      "Ġbezpo": 6181,
      "tania": 6182,
      "ĠOni": 6183,
      "Ġnadto": 6184,
      "Ġryb": 6185,
      "wiej": 6186,
      "ĠpodniosÅĤa": 6187,
      "ĠzakÅĤa": 6188,
      "Ġnasi": 6189,
      "ĠudaÅĤ": 6190,
      "ĠwieÅĽÄĩ": 6191,
      "Ġwieczor": 6192,
      "gno": 6193,
      "Ġwysta": 6194,
      "szczÄĻÅĽli": 6195,
      "Ġoder": 6196,
      "niejszej": 6197,
      "ĠÅĽwiatem": 6198,
      "Ġspojrzenia": 6199,
      "ĠDziÄĻkujÄĻ": 6200,
      "Je": 6201,
      "Ġrozwo": 6202,
      "rÃ³ciÄĩ": 6203,
      "wierci": 6204,
      "ĠRzecz": 6205,
      "miu": 6206,
      "ĠCez": 6207,
      "Ġnajpierw": 6208,
      "Ġrozb": 6209,
      "Ġniebawem": 6210,
      "ĠpÃ³ÅĤnocy": 6211,
      "Ġzary": 6212,
      "ard": 6213,
      "ĠKmi": 6214,
      "lot": 6215,
      "Ġkroku": 6216,
      "cznymi": 6217,
      "int": 6218,
      "Ġodbi": 6219,
      "Ġklaszto": 6220,
      "ĠuÅĤa": 6221,
      "zes": 6222,
      "gnaÅĤ": 6223,
      "ĠtÅĤo": 6224,
      "ĠSÅĤowa": 6225,
      "ÅĽmiertel": 6226,
      "ĠkÅĤÄĻ": 6227,
      "ĠWkrÃ³tce": 6228,
      "ĠBru": 6229,
      "Ġpieszczo": 6230,
      "tenczas": 6231,
      "Ġserdecznie": 6232,
      ".âĢĿ": 6233,
      "ĠradÄĻ": 6234,
      "ĠkrÃ³lem": 6235,
      "ĠmaÅĤÅ¼on": 6236,
      "ĠkÄĻdy": 6237,
      "ndu": 6238,
      "Ġpodar": 6239,
      "Ġstatek": 6240,
      "ĠrÄĻkoma": 6241,
      "Ġpry": 6242,
      "ĠgÅĤodu": 6243,
      "ĠzostaÅĤy": 6244,
      "ĠpowaÅ¼nie": 6245,
      "tele": 6246,
      "Ġbom": 6247,
      "Ġprzyjacielu": 6248,
      "ĠtrzymajÄħc": 6249,
      "twÄĻ": 6250,
      "rzona": 6251,
      "ĠOs": 6252,
      "ĠJakby": 6253,
      "gowie": 6254,
      "Ġsprzy": 6255,
      "Ġsztuka": 6256,
      "Ġuleg": 6257,
      "ĠParyÅ¼a": 6258,
      "Ġporan": 6259,
      "wicza": 6260,
      "Ġprzys": 6261,
      "Ġkomen": 6262,
      "ĠÅ¼adne": 6263,
      "Ġmarmu": 6264,
      "Äħcie": 6265,
      "ĠwiekÃ³w": 6266,
      "tona": 6267,
      "Ġpierwo": 6268,
      "Ġstarzec": 6269,
      "Ġciemne": 6270,
      "Ġpowsta": 6271,
      "Ġbracia": 6272,
      "ĠsÅĤuÅ¼by": 6273,
      "Ġmoty": 6274,
      "ĠosiÄħg": 6275,
      "Ġszyi": 6276,
      "Ġinna": 6277,
      "ĠzewnÄĻtrz": 6278,
      "ĠowÄħ": 6279,
      "ajcie": 6280,
      "ĠwspÃ³ÅĤczu": 6281,
      "wiÅĤy": 6282,
      "ĠpeÅĤna": 6283,
      "Ġstanowczo": 6284,
      "ĠrolÄĻ": 6285,
      "Ġwszystkimi": 6286,
      "Ġchmury": 6287,
      "cjona": 6288,
      "ĠParyÅ¼u": 6289,
      "ĠZnowu": 6290,
      "Ġboi": 6291,
      "ĠmÅĤode": 6292,
      "ĠwÄħtpliwoÅĽci": 6293,
      "ĠostroÅ¼nie": 6294,
      "Ġposzuki": 6295,
      "Ġporze": 6296,
      "Ġnieod": 6297,
      "Ġut": 6298,
      "Ġprzytu": 6299,
      "Ġohy": 6300,
      "dzki": 6301,
      "dziera": 6302,
      "ĠWÅĽrÃ³d": 6303,
      "ĠObo": 6304,
      "piaÅĤ": 6305,
      "ĠdawaÅĤ": 6306,
      "czonej": 6307,
      "kazaÅĤa": 6308,
      "ĠPolsce": 6309,
      "Ġprzestrzeni": 6310,
      "szaÅĤy": 6311,
      "ĠidÅº": 6312,
      "Ġmury": 6313,
      "Ġdwoje": 6314,
      "ĠDalej": 6315,
      "Ġzapach": 6316,
      "ĠPar": 6317,
      "wyciÄĻ": 6318,
      "Ġcieniu": 6319,
      "Ġzza": 6320,
      "ĠmÃ³wiÅĤem": 6321,
      "ĠczarnÄħ": 6322,
      "ĠrzuciÅĤa": 6323,
      "ĠRzek": 6324,
      "Ġniedzie": 6325,
      "Ġunik": 6326,
      "tujÄħ": 6327,
      "kru": 6328,
      "ĠNazajutrz": 6329,
      "chaÅĤem": 6330,
      "Ġzama": 6331,
      "ĠPrzyj": 6332,
      "Ġszyder": 6333,
      "ĠczÅĤowiekowi": 6334,
      "Ġpiasku": 6335,
      "ĠludzkoÅĽci": 6336,
      "Ġbogi": 6337,
      "Ġsied": 6338,
      "zwoi": 6339,
      "nda": 6340,
      "nionÄħ": 6341,
      "ĠksiÄĻÅ¼ni": 6342,
      "ĠJuli": 6343,
      "Ġprecz": 6344,
      "ĠsÅĤowami": 6345,
      "stwi": 6346,
      "Ġnabo": 6347,
      "ĠAndrzej": 6348,
      "pami": 6349,
      "Ġzrazu": 6350,
      "ĠdwÃ³r": 6351,
      "ĠChcÄĻ": 6352,
      "ĠmaÅĤych": 6353,
      "Ġwyrazem": 6354,
      "Ġklucz": 6355,
      "Ġsmo": 6356,
      "ÅĤami": 6357,
      "Ġwidzieli": 6358,
      "Ġtrum": 6359,
      "Ġdzieckiem": 6360,
      "Ġnatura": 6361,
      "gom": 6362,
      "Ġucho": 6363,
      "ĠCaÅĤy": 6364,
      "Ġzagro": 6365,
      "gaÅĤy": 6366,
      "tyczne": 6367,
      "ĠdziaÅĤo": 6368,
      "ĠmajÄħtek": 6369,
      "staj": 6370,
      "Ġwygo": 6371,
      "ĠpotrzÄħ": 6372,
      "ĠpiÄĻknej": 6373,
      "Ġodczy": 6374,
      "ĠzabraÅĤ": 6375,
      "cep": 6376,
      "ĠAleks": 6377,
      "Ġkrai": 6378,
      "ĠopuÅĽci": 6379,
      "ĠbrzÄĻ": 6380,
      "Ġdusze": 6381,
      "Ġbaron": 6382,
      "intere": 6383,
      "Ġzao": 6384,
      "ĠZw": 6385,
      "Ġindziej": 6386,
      "Ġswemu": 6387,
      "Ġcnoty": 6388,
      "ĠbiÄĩ": 6389,
      "ĠsÅĤyszÄĻ": 6390,
      "Ġulu": 6391,
      "ĠTat": 6392,
      "Ġwiecze": 6393,
      "ĠstanÄĻÅĤa": 6394,
      "Ġoficer": 6395,
      "Ġwybuch": 6396,
      "Ġpotwor": 6397,
      "Ġzapad": 6398,
      "ĠpoÅĤudni": 6399,
      "gÅĤem": 6400,
      "Ġprzod": 6401,
      "ĠnaÅĽla": 6402,
      "Ġwybra": 6403,
      "Ġwypadek": 6404,
      "Ġskro": 6405,
      "ĠlubiÄĻ": 6406,
      "ĠdÅĤugich": 6407,
      "ckÄħ": 6408,
      "ĠzasiÄĻ": 6409,
      "Ġprzypo": 6410,
      "ĠpracÄĻ": 6411,
      "Ġnajgor": 6412,
      "Ġtrzecie": 6413,
      "ĠpiÄĻtna": 6414,
      "ĠCicho": 6415,
      "ĠurzÄĻdni": 6416,
      "liwa": 6417,
      "Ġwystawi": 6418,
      "Ġtygodni": 6419,
      "ĠczuÄĩ": 6420,
      "Ġoddy": 6421,
      "Ġledwo": 6422,
      "pet": 6423,
      "ĠkÄħcie": 6424,
      "mistrz": 6425,
      "Ġpurpu": 6426,
      "Ġbudy": 6427,
      "Ġzasy": 6428,
      "Ġobrzy": 6429,
      "gnÄĻÅĤa": 6430,
      "Ġgdym": 6431,
      "ĠmyÅĽlaÅĤem": 6432,
      "Ġnowa": 6433,
      "siÅĤa": 6434,
      "Ġrzeczach": 6435,
      "Ġstatku": 6436,
      "ĠotchÅĤa": 6437,
      "ĠjÄĻzyka": 6438,
      "czÄħcych": 6439,
      "ĠZatem": 6440,
      "ĠskÅĤad": 6441,
      "Ġnowym": 6442,
      "czajÄħ": 6443,
      "czÄħÅĤem": 6444,
      "Ġstarszy": 6445,
      "ĠkrzesÅĤa": 6446,
      "Ã¨": 6447,
      "Ġwznosi": 6448,
      "ĠmyÅĽlaÅĤa": 6449,
      "cowi": 6450,
      "Å¼eniem": 6451,
      "bienia": 6452,
      "gl": 6453,
      "Ġwychy": 6454,
      "piÅĤa": 6455,
      "szczajÄħc": 6456,
      "Ġstaru": 6457,
      "ĠsÅĤusznie": 6458,
      "widu": 6459,
      "Ġgotowa": 6460,
      "ÅĽwiado": 6461,
      "onÃ³w": 6462,
      "Ġzwraca": 6463,
      "Ġdziwnego": 6464,
      "Ġodwagi": 6465,
      "ĠpierwszÄħ": 6466,
      "ĠpragnÄħÅĤ": 6467,
      "Ġne": 6468,
      "Ġdochodzi": 6469,
      "ĠszukaÅĤ": 6470,
      "Ġfale": 6471,
      "ĠÅĽwiÄĻta": 6472,
      "Ġschodach": 6473,
      "Å¼eÄĩ": 6474,
      "Ġpapiero": 6475,
      "ĠÅĽrÃ³d": 6476,
      "ĠniedÅºwie": 6477,
      "bek": 6478,
      "many": 6479,
      "Ġojczyzny": 6480,
      "dzial": 6481,
      "Ġoknie": 6482,
      "ĠpiÄĻknoÅĽci": 6483,
      "siÄħÅĽÄĩ": 6484,
      "Ġzamiar": 6485,
      "wÄħtpliwie": 6486,
      "ĠwtÃ³": 6487,
      "ĠpodaÅĤ": 6488,
      "Ġpodobnie": 6489,
      "ĠpeÅĤnÄħ": 6490,
      "Ġobrazy": 6491,
      "Ġpozosta": 6492,
      "ĠstaroÅ¼y": 6493,
      "ĠzwiÄħzku": 6494,
      "ir": 6495,
      "ĠbraÅĤ": 6496,
      "rzyna": 6497,
      "ĠprosiÅĤ": 6498,
      "Ġpust": 6499,
      "ĠÅĤodzi": 6500,
      "Ġniepodobna": 6501,
      "ĠRÄĻ": 6502,
      "szczenie": 6503,
      "ĠznalazÅĤa": 6504,
      "ĠAleksand": 6505,
      "Ġprzykry": 6506,
      "Ġkona": 6507,
      "ĠnogÄĻ": 6508,
      "Ġ17": 6509,
      "Ġoddali": 6510,
      "Ġobawy": 6511,
      "Ġptak": 6512,
      "ĠweszÅĤa": 6513,
      "dowany": 6514,
      "Ġkam": 6515,
      "pali": 6516,
      "ĠsÅĤuÅ¼yÄĩ": 6517,
      "ĠdÅĤugim": 6518,
      "gne": 6519,
      "ĠpoÅ¼Äħda": 6520,
      "Ġtygod": 6521,
      "czom": 6522,
      "ĠÅļmier": 6523,
      "rab": 6524,
      "ĠtyÅĤ": 6525,
      "Ġdoktora": 6526,
      "Ġhumo": 6527,
      "szkÄĻ": 6528,
      "ĠWÄĻ": 6529,
      "ĠNim": 6530,
      "ĠRÃ³": 6531,
      "ĠczÅĤowieku": 6532,
      "Ġmusisz": 6533,
      "Ġpodobnych": 6534,
      "Ġgruby": 6535,
      "torze": 6536,
      "sÅĤe": 6537,
      "Ġtrudem": 6538,
      "ĠspojrzaÅĤa": 6539,
      "ĠwrÃ³Å¼": 6540,
      "minaÅĤ": 6541,
      "pana": 6542,
      "ĠpierÅĽcie": 6543,
      "Å¼onych": 6544,
      "Ġgospodarz": 6545,
      "Ġprzeci": 6546,
      "ĠNu": 6547,
      "ĠspotkaÅĤ": 6548,
      "lana": 6549,
      "Ġmono": 6550,
      "ĠInd": 6551,
      "ĠopuÅĽciÅĤ": 6552,
      "ĠÅĽrodka": 6553,
      "ĠdajÄħc": 6554,
      "ĠÅĽcie": 6555,
      "Ġpodusz": 6556,
      "ĠChi": 6557,
      "ĠpÅĤacze": 6558,
      "Ġgromad": 6559,
      "ĠNastÄĻpnie": 6560,
      "Ġzez": 6561,
      "ĠZd": 6562,
      "ĠMichaÅĤ": 6563,
      "owanÄħ": 6564,
      "mym": 6565,
      "ĠÅĽmiejÄħc": 6566,
      "ĠprzyjaÅºni": 6567,
      "ĠgaÅĤÄħ": 6568,
      "Ġwybo": 6569,
      "pera": 6570,
      "Ġdoprawdy": 6571,
      "Ġczele": 6572,
      "ĠstojÄħ": 6573,
      "ĠkaÅ¼demu": 6574,
      "Ġzawiera": 6575,
      "Ġwago": 6576,
      "ĠziemiÄħ": 6577,
      "Ġschwy": 6578,
      "Ġnazwiska": 6579,
      "ĠrÃ³wnoczeÅĽnie": 6580,
      "towania": 6581,
      "cznoÅĽciÄħ": 6582,
      "Ġkle": 6583,
      "staÅĤem": 6584,
      "woka": 6585,
      "ĠrozÅĤo": 6586,
      "Ġsamemu": 6587,
      "Ġramieniu": 6588,
      "ĠzÅĤoty": 6589,
      "ĠWielki": 6590,
      "Å¼ar": 6591,
      "ĠNatu": 6592,
      "jaÅĽ": 6593,
      "sarza": 6594,
      "nionym": 6595,
      "ĠwpÅĤywem": 6596,
      "liwÄħ": 6597,
      "kajÄħ": 6598,
      "ĠBogiem": 6599,
      "ĠZale": 6600,
      "Ġstopnia": 6601,
      "ĠSÅĤoÅĦce": 6602,
      "ĠDÅĤugo": 6603,
      "lik": 6604,
      "ĠPosta": 6605,
      "Ġpytania": 6606,
      "ĠDzieci": 6607,
      "Ġogrodzie": 6608,
      "Ġabsolu": 6609,
      "Ġie": 6610,
      "ĠresztÄĻ": 6611,
      "Ġpowietrza": 6612,
      "zglÄĻ": 6613,
      "skÃ³w": 6614,
      "ĠWchodzi": 6615,
      "ĠAnie": 6616,
      "Ġzadr": 6617,
      "wana": 6618,
      "Ġjedyny": 6619,
      "ĠduszÄħ": 6620,
      "ĠstraciÅĤ": 6621,
      "rÃ³ciÅĤa": 6622,
      "Ġkamienie": 6623,
      "ĠZapew": 6624,
      "sch": 6625,
      "Ġary": 6626,
      "Ġszwa": 6627,
      "ĠuwaÅ¼nie": 6628,
      "cent": 6629,
      "ĠpÅĤu": 6630,
      "Ġkaj": 6631,
      "ĠTwarz": 6632,
      "Ġlewej": 6633,
      "Ġbiegu": 6634,
      "Ġdrobne": 6635,
      "Ġuchy": 6636,
      "ĠnapisaÅĤ": 6637,
      "Ġskaza": 6638,
      "Ġpilnie": 6639,
      "Ġzatru": 6640,
      "amo": 6641,
      "ĠlitoÅĽci": 6642,
      "ĠÅĤatwiej": 6643,
      "Ġwygna": 6644,
      "Ġuwol": 6645,
      "ĠpowrÃ³ciÅĤ": 6646,
      "ĠJana": 6647,
      "racajÄħc": 6648,
      "Ġmelo": 6649,
      "Ġstraszny": 6650,
      "bki": 6651,
      "Ġ7": 6652,
      "owia": 6653,
      "Ġzdecy": 6654,
      "Ġmusieli": 6655,
      "Ġrozle": 6656,
      "Ġrany": 6657,
      "Ġjab": 6658,
      "ĠÅ¼ebyÅĽ": 6659,
      "Ġspokojny": 6660,
      "Ġprzyjaciele": 6661,
      "Ġsukni": 6662,
      "czaÅĤo": 6663,
      "Ġmowa": 6664,
      "Ġpach": 6665,
      "Ġmorder": 6666,
      "ĠjaÅĤ": 6667,
      "Ġrada": 6668,
      "duk": 6669,
      "ĠÅĤago": 6670,
      "Ġprawej": 6671,
      "ĠwiÄĻksze": 6672,
      "Ġostatnim": 6673,
      "ĠSzwe": 6674,
      "Ġprzeprowa": 6675,
      "Ġmomen": 6676,
      "gania": 6677,
      "Ġsmutek": 6678,
      "razy": 6679,
      "ĠwiadomoÅĽÄĩ": 6680,
      "nisz": 6681,
      "ĠbeÅĤ": 6682,
      "Ġszary": 6683,
      "ĠwiarÄĻ": 6684,
      "Ġspotyka": 6685,
      "Ġczole": 6686,
      "ĠwykrzyknÄħÅĤ": 6687,
      "ana": 6688,
      "ĠMiÄĻ": 6689,
      "bina": 6690,
      "ÅĽliÄĩ": 6691,
      "ĠrobiÄħ": 6692,
      "szne": 6693,
      "owny": 6694,
      "ĠwyglÄħdaÅĤ": 6695,
      "lnik": 6696,
      "ĠdodaÅĤa": 6697,
      "Ġbutel": 6698,
      "ĠTyle": 6699,
      "Ġnara": 6700,
      "ÅĦcem": 6701,
      "tycznie": 6702,
      "ĠwieÅĽci": 6703,
      "szep": 6704,
      "anka": 6705,
      "ĠpiÄĻknych": 6706,
      "Ġzj": 6707,
      "Ġnamy": 6708,
      "ade": 6709,
      "Ġstopni": 6710,
      "ĠoÅĽwiadczyÅĤ": 6711,
      "Ġotu": 6712,
      "âĢĵ": 6713,
      "ĠogÅĤo": 6714,
      "Ġprawdopodob": 6715,
      "Ġnauk": 6716,
      "Ġprzynosi": 6717,
      "Ġszpita": 6718,
      "ĠIz": 6719,
      "ĠGi": 6720,
      "skimi": 6721,
      "Ġpowinno": 6722,
      "Ġtrosk": 6723,
      "Ġchcecie": 6724,
      "ĠChodÅº": 6725,
      "Ġstarannie": 6726,
      "Ġzazna": 6727,
      "Ġrosyj": 6728,
      "Ġtamtej": 6729,
      "ĠTrudno": 6730,
      "ĠbezpoÅĽ": 6731,
      "czeni": 6732,
      "ĠstÄĻ": 6733,
      "ĠrÃ³wni": 6734,
      "Ġofiary": 6735,
      "Ġpode": 6736,
      "Ġobda": 6737,
      "ĠzaklÄĻ": 6738,
      "szonym": 6739,
      "ĠsprzÄĻ": 6740,
      "Ġfol": 6741,
      "ĠGor": 6742,
      "ĠjaÅĽnie": 6743,
      "Ġograni": 6744,
      "Ġrozmowa": 6745,
      "ĠGdzieÅ¼": 6746,
      "Ġwiemy": 6747,
      "Ġrusz": 6748,
      "Ġzakry": 6749,
      "ÅĽleÄĩ": 6750,
      "myÅĽlaÅĤ": 6751,
      "ĠÅĽlad": 6752,
      "ast": 6753,
      "liny": 6754,
      "stos": 6755,
      "Ġwaha": 6756,
      "ĠpamiÄĻtam": 6757,
      "To": 6758,
      "Å¼yÅĤo": 6759,
      "niusz": 6760,
      "Ġcudzo": 6761,
      "Ġmuzyka": 6762,
      "rat": 6763,
      "ĠzdoÅĤaÅĤ": 6764,
      "ĠszczegÃ³": 6765,
      "Ġnaby": 6766,
      "kali": 6767,
      "Ġton": 6768,
      "Ġstarym": 6769,
      "Ġleni": 6770,
      "Ġsieni": 6771,
      "Ġbije": 6772,
      "ĠÅĤok": 6773,
      "Ġumiem": 6774,
      "jemu": 6775,
      "ĠdraÅ¼": 6776,
      "Ġkolum": 6777,
      "ÅĤuje": 6778,
      "lejno": 6779,
      "Ġdem": 6780,
      "Ġdostar": 6781,
      "sio": 6782,
      "Ġwid": 6783,
      "Ġwysoki": 6784,
      "Ġogromne": 6785,
      "Ġzgra": 6786,
      "Ġpochodzi": 6787,
      "ĠChwi": 6788,
      "Ġsiostra": 6789,
      "tkaÄĩ": 6790,
      "ĠNor": 6791,
      "kiewicz": 6792,
      "ĠleÅ¼aÅĤa": 6793,
      "ĠzabiÄĩ": 6794,
      "Ġszereg": 6795,
      "rzÄħc": 6796,
      "ĠnieÅĽmiertel": 6797,
      "Ġzanu": 6798,
      "ĠodtÄħd": 6799,
      "ĠZami": 6800,
      "ĠKoÅĽci": 6801,
      "ĠdowiedzieÄĩ": 6802,
      "dzaÅĤa": 6803,
      "ĠtyÅĤu": 6804,
      "ĠAm": 6805,
      "ĠJezus": 6806,
      "Ġprowin": 6807,
      "tes": 6808,
      "rÄĻdzej": 6809,
      "Ġmniema": 6810,
      "Ġdobrych": 6811,
      "ĠzÅĤÄħ": 6812,
      "ĠwypÅĤy": 6813,
      "ĠprzyznaÄĩ": 6814,
      "Ġtri": 6815,
      "ĠodpowiedzieÄĩ": 6816,
      "Ġwarto": 6817,
      "que": 6818,
      "Ġmet": 6819,
      "ĠCaÅĤa": 6820,
      "ĠJad": 6821,
      "ĠbyÅĤam": 6822,
      "ĠpokazaÄĩ": 6823,
      "ĠTar": 6824,
      "ĠZat": 6825,
      "lono": 6826,
      "ĠIm": 6827,
      "ĠmaleÅĦ": 6828,
      "ĠzwrÃ³": 6829,
      "ĠskÃ³ry": 6830,
      "Ġkary": 6831,
      "gajÄħ": 6832,
      "ĠPowi": 6833,
      "Ġpropo": 6834,
      "Ġzma": 6835,
      "Ġblu": 6836,
      "ĠzrobiÅĤa": 6837,
      "nkÄħ": 6838,
      "dym": 6839,
      "Ġpozwal": 6840,
      "ĠwyÅĤÄħcznie": 6841,
      "Ġswa": 6842,
      "Å¼nych": 6843,
      "Ġach": 6844,
      "Ġgrzy": 6845,
      "roczy": 6846,
      "pre": 6847,
      "Ġnamio": 6848,
      "ĠwieÅ¼y": 6849,
      "rywaÄĩ": 6850,
      "Ġchra": 6851,
      "tobli": 6852,
      "Ġzaka": 6853,
      "ĠÅĽlub": 6854,
      "ela": 6855,
      "ĠpowieÅĽci": 6856,
      "Ġmatce": 6857,
      "ĠbiaÅĤa": 6858,
      "Ġoknem": 6859,
      "ĠsynÃ³w": 6860,
      "ĠKarol": 6861,
      "dziesiÄĻciu": 6862,
      "AN": 6863,
      "szliÅĽmy": 6864,
      "mujÄĻ": 6865,
      "rzam": 6866,
      "czkach": 6867,
      "Ġgwi": 6868,
      "ĠchÄĻÄĩ": 6869,
      "zdo": 6870,
      "Ġprzo": 6871,
      "niosÅĤo": 6872,
      "ĠjakichÅĽ": 6873,
      "Ġwojewo": 6874,
      "wiam": 6875,
      "ĠSan": 6876,
      "Ġwiny": 6877,
      "Ġmieszkanie": 6878,
      "Ġpotom": 6879,
      "ĠstrÃ³Å¼": 6880,
      "ĠwiedziaÅĤem": 6881,
      "kujÄħc": 6882,
      "ĠwolnoÅĽÄĩ": 6883,
      "ĠHol": 6884,
      "Ġtwych": 6885,
      "Ġtkli": 6886,
      "ĠkrÄħ": 6887,
      "ĠpozÃ³r": 6888,
      "ĠwojnÄĻ": 6889,
      "ralnie": 6890,
      "owiadaÅĤa": 6891,
      "ĠpopÄĻ": 6892,
      "ĠwyÅĤa": 6893,
      "ĠByÄĩ": 6894,
      "Ġsypial": 6895,
      "Artagnan": 6896,
      "Ġzepsu": 6897,
      "Po": 6898,
      "Ġset": 6899,
      "ĠzasÅĤa": 6900,
      "Ġwyra": 6901,
      "ĠoglÄħd": 6902,
      "wajÄħce": 6903,
      "lety": 6904,
      "tent": 6905,
      "gich": 6906,
      "ĠnogÄħ": 6907,
      "ĠbiaÅĤym": 6908,
      "Ġniecierpli": 6909,
      "Co": 6910,
      "ĠoÅĽle": 6911,
      "ĠwyraÅ¼": 6912,
      "Ġprzesta": 6913,
      "cielem": 6914,
      "Ġstopy": 6915,
      "ĠÅģa": 6916,
      "ĠpiÄĻÄĩdziesiÄħt": 6917,
      "ĠÅĽladu": 6918,
      "brew": 6919,
      "vi": 6920,
      "Ġkoniu": 6921,
      "Ġbiur": 6922,
      "Ġmusimy": 6923,
      "ĠwraÅ¼enia": 6924,
      "ĠAmery": 6925,
      "stry": 6926,
      "ĠnastÄĻpu": 6927,
      "Ġcmenta": 6928,
      "Ġwypada": 6929,
      "miany": 6930,
      "ĠwartoÅĽÄĩ": 6931,
      "ĠChociaÅ¼": 6932,
      "ĠzrobiÅĤo": 6933,
      "rki": 6934,
      "Ġutk": 6935,
      "Ġptaki": 6936,
      "ĠzwierzÄĻta": 6937,
      "owoÅĽÄĩ": 6938,
      "Ġodprowa": 6939,
      "ĠjÄħÅĤ": 6940,
      "ĠwolnoÅĽci": 6941,
      "Ġgranic": 6942,
      "ĠCzÄĻsto": 6943,
      "Ġoble": 6944,
      "Ġdziwny": 6945,
      "szoÅĽÄĩ": 6946,
      "ĠprzyjemnoÅĽÄĩ": 6947,
      "Ġatmos": 6948,
      "ĠzerwaÅĤ": 6949,
      "Ġdzier": 6950,
      "Ġkarcz": 6951,
      "ĠÄĩwi": 6952,
      "tet": 6953,
      "Ġrum": 6954,
      "ĠumiejÄĻ": 6955,
      "ĠwejÅĽÄĩ": 6956,
      "Ġcodziennie": 6957,
      "ĠcaÅĤkowicie": 6958,
      "ĠHal": 6959,
      "ĠpowstaÅĤ": 6960,
      "Ġpodobna": 6961,
      "ĠkilkanaÅĽcie": 6962,
      "Ġkol": 6963,
      "Ġznasz": 6964,
      "dziawszy": 6965,
      "Ġniespodzia": 6966,
      "ĠwewnÄħtrz": 6967,
      "liÅ¼": 6968,
      "Ġsmutny": 6969,
      "ĠÅĽwiÄĻtego": 6970,
      "ĠKtoÅĽ": 6971,
      "ĠprzekonaÄĩ": 6972,
      "mii": 6973,
      "Ġodpra": 6974,
      "ĠciaÅĤem": 6975,
      "nikami": 6976,
      "Ġzamek": 6977,
      "owami": 6978,
      "Ġpoczy": 6979,
      "ĠNau": 6980,
      "Ġ16": 6981,
      "zmem": 6982,
      "Ġkosztow": 6983,
      "ĠprzeszÅĤoÅĽci": 6984,
      "ÅĤÄħd": 6985,
      "Ġwsta": 6986,
      "ĠpodnoszÄħc": 6987,
      "ĠmilczÄħc": 6988,
      "Ġgaze": 6989,
      "patrz": 6990,
      "ĠprowadzÄħc": 6991,
      "Ġpoprzez": 6992,
      "nÄħcych": 6993,
      "Ġwnu": 6994,
      "Ġwpada": 6995,
      "Ġkapi": 6996,
      "ĠgdybyÅĽ": 6997,
      "ĠznaleÅºli": 6998,
      "Ġniewoli": 6999,
      "nal": 7000,
      "Ġszpi": 7001,
      "owiec": 7002,
      "Ġotrzyma": 7003,
      "ĠdziesiÄĻciu": 7004,
      "ĠPÃ³Åº": 7005,
      "ĠWidziaÅĤem": 7006,
      "ĠtoÅ¼": 7007,
      "ĠpowrÃ³t": 7008,
      "conych": 7009,
      "Ġdarmo": 7010,
      "ĠpoÅĤudnie": 7011,
      "Ġambi": 7012,
      "ĠSerce": 7013,
      "ĠZagÅĤoba": 7014,
      "jny": 7015,
      "Ġszer": 7016,
      "ĠÅ¼egna": 7017,
      "ĠbroniÄĩ": 7018,
      "Ġliterac": 7019,
      "rzyÅĤem": 7020,
      "ĠprzyjechaÅĤ": 7021,
      "ĠGar": 7022,
      "Ġpostanowie": 7023,
      "Ġprzewodni": 7024,
      "kowy": 7025,
      "ĠpomysÅĤ": 7026,
      "Ġjedzie": 7027,
      "piera": 7028,
      "Ġprobo": 7029,
      "Ġpowinni": 7030,
      "wajÄħcy": 7031,
      "ĠidÄĻ": 7032,
      "nan": 7033,
      "szyÅĤy": 7034,
      "ĠKali": 7035,
      "ĠukÅĤa": 7036,
      "Ġpacie": 7037,
      "Ġparob": 7038,
      "Ġgory": 7039,
      "Ġrozpro": 7040,
      "Ġpozby": 7041,
      "niÄĻciem": 7042,
      "Ġkamieni": 7043,
      "Å¼eÅĽ": 7044,
      "ĠracjÄĻ": 7045,
      "ĠDaw": 7046,
      "ĠSalo": 7047,
      "Ġplacu": 7048,
      "ĠodwrÃ³ciÅĤ": 7049,
      "Ġadwoka": 7050,
      "ĠToÅ¼": 7051,
      "ĠPodczas": 7052,
      "Ġsilny": 7053,
      "Ġnor": 7054,
      "dzam": 7055,
      "Ġrodu": 7056,
      "ĠszÃ³": 7057,
      "ĠczytaÅĤ": 7058,
      "ĠmatkÄħ": 7059,
      "Ġpart": 7060,
      "Ġgrunt": 7061,
      "czku": 7062,
      "ĠPom": 7063,
      "ĠdziaÅĤ": 7064,
      "ĠUj": 7065,
      "ĠkobietÄħ": 7066,
      "pka": 7067,
      "rujÄħc": 7068,
      "Ġswoi": 7069,
      "ĠmilczaÅĤ": 7070,
      "cik": 7071,
      "chany": 7072,
      "rzuciÅĤ": 7073,
      "Ġwysokie": 7074,
      "Ġharmo": 7075,
      "Ġodma": 7076,
      "baÅĤ": 7077,
      "Ġprzyk": 7078,
      "Ġhra": 7079,
      "szawszy": 7080,
      "Ġwojna": 7081,
      "Ġludzkiego": 7082,
      "ĠÅĽrodek": 7083,
      "era": 7084,
      "Ġsfe": 7085,
      "piÄħc": 7086,
      "sÅĤawa": 7087,
      "ĠpracowaÄĩ": 7088,
      "ĠprzestrzeÅĦ": 7089,
      "Ġusprawiedli": 7090,
      "ĠukazaÅĤ": 7091,
      "ĠLon": 7092,
      "Ġnud": 7093,
      "ĠWsze": 7094,
      "Ġnader": 7095,
      "Ġsynu": 7096,
      "dziano": 7097,
      "ĠÅĽwiÄĻto": 7098,
      "ĠMÃ³wiÅĤ": 7099,
      "Ġtrwogi": 7100,
      "Ġprywa": 7101,
      "ĠJedna": 7102,
      "ĠnÄĻdzy": 7103,
      "ĠnamiÄĻtnoÅĽci": 7104,
      "Ġdwudziestu": 7105,
      "cej": 7106,
      "ĠzjawiÅĤ": 7107,
      "ĠpÅĤci": 7108,
      "Ġindywidu": 7109,
      "ĠBÄĻdÄĻ": 7110,
      "ĠÃ³": 7111,
      "Ġsmutku": 7112,
      "ĠwysokoÅĽci": 7113,
      "Ġcierpienia": 7114,
      "Ġklejno": 7115,
      "owanym": 7116,
      "Ġwiod": 7117,
      "ĠjesteÅĽcie": 7118,
      "Ġzdrowia": 7119,
      "spi": 7120,
      "ĠprzyjÄħÅĤ": 7121,
      "Ġwiatru": 7122,
      "Ġopieku": 7123,
      "ĠwaÄĩpan": 7124,
      "ĠgÄħ": 7125,
      "ĠprzyniÃ³sÅĤ": 7126,
      "ĠSmi": 7127,
      "Ġzakon": 7128,
      "ĠStani": 7129,
      "Ġdresz": 7130,
      "ĠwierzÄĻ": 7131,
      "bin": 7132,
      "Ġproro": 7133,
      "Ġdrogie": 7134,
      "Ġpewnych": 7135,
      "ĠpoglÄħd": 7136,
      "ĠpÅĤakaÄĩ": 7137,
      "prawdaÅ¼": 7138,
      "wiaÅĤy": 7139,
      "Ġbogat": 7140,
      "ĠGot": 7141,
      "ĠÅĤaw": 7142,
      "guje": 7143,
      "Ã³dz": 7144,
      "Ġdzien": 7145,
      "ĠkoÅĽciele": 7146,
      "akro": 7147,
      "Ġugo": 7148,
      "ĠrozciÄħg": 7149,
      "Ġmur": 7150,
      "Ġstosunki": 7151,
      "ĠfrankÃ³w": 7152,
      "Ġhistoria": 7153,
      "Ġherb": 7154,
      "Ġnaci": 7155,
      "ĠwychodzÄħc": 7156,
      "Ġstosow": 7157,
      "menty": 7158,
      "dla": 7159,
      "lski": 7160,
      "ndy": 7161,
      "Ġsna": 7162,
      "Ġdostanie": 7163,
      "rÃ³bu": 7164,
      "ĠspÅĤo": 7165,
      "Ġszkoda": 7166,
      "ĠminÄħ": 7167,
      "ĠHenryk": 7168,
      "ĠnieÅĤa": 7169,
      "Ġlubo": 7170,
      "ĠinÅ¼ynie": 7171,
      "ĠDoÅĽÄĩ": 7172,
      "Ġzdraj": 7173,
      "Ġpowiadam": 7174,
      "Ġczarno": 7175,
      "Ġpalcami": 7176,
      "ĠboleÅĽci": 7177,
      "Ġprzemo": 7178,
      "owanego": 7179,
      "kutek": 7180,
      "ĠÅ»ydzi": 7181,
      "ropej": 7182,
      "Ġschro": 7183,
      "kaÅĤem": 7184,
      "Ġwd": 7185,
      "Ġsynem": 7186,
      "cku": 7187,
      "bili": 7188,
      "Ġboli": 7189,
      "ĠchÄĻci": 7190,
      "nadto": 7191,
      "ĠJoh": 7192,
      "czko": 7193,
      "ĠdajÄħ": 7194,
      "dnich": 7195,
      "ĠksiÄĻÅ¼yca": 7196,
      "dzieliÅĽmy": 7197,
      "Ġmala": 7198,
      "Ġzapas": 7199,
      "ĠCzem": 7200,
      "rodku": 7201,
      "ĠchÅĤopcÃ³w": 7202,
      "Ġplecy": 7203,
      "Ġwspomnienie": 7204,
      "ĠmÅĤodzieniec": 7205,
      "Å¼Äħc": 7206,
      "Ġprzemy": 7207,
      "rum": 7208,
      "ĠÅ¼aÅĤ": 7209,
      "ĠzdrÃ³w": 7210,
      "Ġfortu": 7211,
      "lg": 7212,
      "mej": 7213,
      "Ġ8": 7214,
      "ĠspotkaÄĩ": 7215,
      "Ġdomem": 7216,
      "ĠzaleÅ¼y": 7217,
      "ĠWeÅº": 7218,
      "ĠMiÄĻdzy": 7219,
      "szczyÅĤ": 7220,
      "arka": 7221,
      "ĠposÅĤy": 7222,
      "ĠmÃ³z": 7223,
      "Ġniespodzie": 7224,
      "Ġkolor": 7225,
      "ĠÅĽmiaÄĩ": 7226,
      "Ġroli": 7227,
      "teczne": 7228,
      "skajÄħc": 7229,
      "Ġgrzech": 7230,
      "ĠniebezpieczeÅĦstwo": 7231,
      "Ġpopi": 7232,
      "ĠdosiÄĻ": 7233,
      "Ġchwile": 7234,
      "ĠkrÃ³lu": 7235,
      "ĠJakoÅ¼": 7236,
      "ĠprzejÄĻ": 7237,
      "ĠdzieÄĩmi": 7238,
      "czam": 7239,
      "ĠszÅĤo": 7240,
      "Ġmusz": 7241,
      "ĠdziewczynÄĻ": 7242,
      "ĠmÅĤodej": 7243,
      "Ġodz": 7244,
      "Ġwywi": 7245,
      "Ġwiecie": 7246,
      "Ġdawne": 7247,
      "Ġwspomina": 7248,
      "Ġzazwyczaj": 7249,
      "ĠczÄħ": 7250,
      "zujÄħ": 7251,
      "Ġwiedzieli": 7252,
      "raziÄĩ": 7253,
      "ĠPrzeciw": 7254,
      "Ġwaszych": 7255,
      "Ġgaz": 7256,
      "ĠwspÃ³ÅĤczes": 7257,
      "Ġopa": 7258,
      "ĠbyÅĤbym": 7259,
      "ktry": 7260,
      "ĠpeÅĤno": 7261,
      "Ġniewidzial": 7262,
      "Ġnag": 7263,
      "bione": 7264,
      "Ġlasy": 7265,
      "ĠchciaÅĤbym": 7266,
      "ĠKas": 7267,
      "Ġbudzi": 7268,
      "listy": 7269,
      "Ġeleg": 7270,
      "ĠAlber": 7271,
      "Ġwyspy": 7272,
      "Ġwyzwo": 7273,
      "ĠKla": 7274,
      "skami": 7275,
      "Ġzgrzy": 7276,
      "szyÅĤo": 7277,
      "pany": 7278,
      "ĠlitoÅĽÄĩ": 7279,
      "ĠwÅĤasny": 7280,
      "torem": 7281,
      "Ġbrzyd": 7282,
      "Ġzwierci": 7283,
      "miesz": 7284,
      "cek": 7285,
      "ĠZdzi": 7286,
      "ĠkrÃ³lowa": 7287,
      "ĠochotÄĻ": 7288,
      "ĠwyobraÅºni": 7289,
      "jek": 7290,
      "ĠBel": 7291,
      "Ġrozsze": 7292,
      "ĠFra": 7293,
      "ĠgraÄĩ": 7294,
      "Ġzata": 7295,
      "Ġrzym": 7296,
      "leb": 7297,
      "Ġprzymu": 7298,
      "tura": 7299,
      "ĠMyÅĽli": 7300,
      "dzonÄħ": 7301,
      "Ġszaty": 7302,
      "ĠchwyciÅĤ": 7303,
      "wiec": 7304,
      "Ġdrudzy": 7305,
      "ĠÅĽciÅĽle": 7306,
      "Ġ15": 7307,
      "ano": 7308,
      "les": 7309,
      "ĠZas": 7310,
      "ĠOdpowie": 7311,
      "Ġrozkazy": 7312,
      "Ġprofeso": 7313,
      "Ġwpra": 7314,
      "Å¼nÄħ": 7315,
      "miec": 7316,
      "Ġgrob": 7317,
      "krotnie": 7318,
      "Ġdobrodziej": 7319,
      "Ġnasy": 7320,
      "Ġposzli": 7321,
      "Ġporoz": 7322,
      "ĠgoÅĽÄĩ": 7323,
      "ĠrzuciÄĩ": 7324,
      "Ġoddech": 7325,
      "dowaÅĤa": 7326,
      "tus": 7327,
      "ĠsÅĤowy": 7328,
      "Ġtowarzystwo": 7329,
      "ĠMaria": 7330,
      "ĠNiemcy": 7331,
      "amen": 7332,
      "Ġprzyt": 7333,
      "ĠosÅĤo": 7334,
      "Ġzabawy": 7335,
      "ĠPencro": 7336,
      "ĠprzeraÅº": 7337,
      "ajÄħcego": 7338,
      "Ġbieda": 7339,
      "Ġwygra": 7340,
      "Ġkatoli": 7341,
      "ĠRÃ³w": 7342,
      "ĠÅļpie": 7343,
      "Ġniepotrze": 7344,
      "ĠdÅĤoniÄħ": 7345,
      "Ġnaka": 7346,
      "leniu": 7347,
      "Ġcichy": 7348,
      "ĠzÅĤotem": 7349,
      "Ġtrak": 7350,
      "Ġczarnej": 7351,
      "Ġpiw": 7352,
      "Ġgniewem": 7353,
      "ĠGene": 7354,
      "Ġsmak": 7355,
      "Ġostatniego": 7356,
      "Ġpacho": 7357,
      "ĠÅ»ycie": 7358,
      "ver": 7359,
      "Å¼aÅĤo": 7360,
      "ĠoddziaÅĤ": 7361,
      "ĠJutro": 7362,
      "ĠpiÅĤ": 7363,
      "ĠprzyjaÅºÅĦ": 7364,
      "ĠjedynÄħ": 7365,
      "ĠÅĽcianÄĻ": 7366,
      "rka": 7367,
      "tyna": 7368,
      "Ġhas": 7369,
      "imna": 7370,
      "ĠsÅĤody": 7371,
      "ĠmÃ³gÅĤbym": 7372,
      "ĠwÄĻz": 7373,
      "Ġbogaty": 7374,
      "ĠrozpoczÄĻ": 7375,
      "liwszy": 7376,
      "gim": 7377,
      "ĠGÃ³": 7378,
      "ĠÅ¼ywe": 7379,
      "cjan": 7380,
      "ÅĤÃ³d": 7381,
      "Ġnum": 7382,
      "Ġimieniu": 7383,
      "ĠbojÄĻ": 7384,
      "ĠpannÄĻ": 7385,
      "Ġzbieg": 7386,
      "Ġmno": 7387,
      "ĠstarÄħ": 7388,
      "ĠpozwoliÅĤ": 7389,
      "Ġpotrzebne": 7390,
      "nsz": 7391,
      "Ġuzy": 7392,
      "pane": 7393,
      "ĠNale": 7394,
      "ĠzapaÅĤ": 7395,
      "ĠNoc": 7396,
      "ĠniepokÃ³j": 7397,
      "ĠotrzymaÅĤ": 7398,
      "ĠzwracajÄħc": 7399,
      "Ġodpoczy": 7400,
      "Ġniestety": 7401,
      "Ġstale": 7402,
      "ĠsiÃ³d": 7403,
      "ĠMurek": 7404,
      "ĠpatrzyÅĤa": 7405,
      "Ġtajemnicy": 7406,
      "ĠWoÅĤodyj": 7407,
      "Ġponi": 7408,
      "ĠksiÄħÅ¼ek": 7409,
      "Ġustro": 7410,
      "ĠmoÅĽci": 7411,
      "gany": 7412,
      "Ġzbrodnia": 7413,
      "ĠWziÄħ": 7414,
      "Ġwskutek": 7415,
      "ĠwÄĻdr": 7416,
      "pel": 7417,
      "Ġtrz": 7418,
      "stajÄħ": 7419,
      "siedli": 7420,
      "ĠFlo": 7421,
      "ĠtrzymaÄĩ": 7422,
      "ĠzewnÄħtrz": 7423,
      "ĠwielkoÅĽci": 7424,
      "ÅĽnia": 7425,
      "Ġbuty": 7426,
      "ĠÅ¼adnym": 7427,
      "racaÅĤ": 7428,
      "ĠÅĽcianie": 7429,
      "ĠhistoriÄĻ": 7430,
      "Ġchoroby": 7431,
      "Ġwystarczy": 7432,
      "Ġnao": 7433,
      "ĠzabraÄĩ": 7434,
      "Ġpodobie": 7435,
      "ĠobÅĤÄħka": 7436,
      "ĠwÅĤadzÄĻ": 7437,
      "ĠzwierzÄħt": 7438,
      "paÅĤy": 7439,
      "Ġzacie": 7440,
      "ĠPla": 7441,
      "ĠprzejÅĽÄĩ": 7442,
      "ĠwnÄĻtrza": 7443,
      "Ġnama": 7444,
      "Ġwypi": 7445,
      "Ġteor": 7446,
      "Ġnosem": 7447,
      "ĠpiÄĩ": 7448,
      "Ġsuch": 7449,
      "ĠmoÅ¼liwe": 7450,
      "Ġzwro": 7451,
      "ĠtrudnoÅĽci": 7452,
      "Ġgruncie": 7453,
      "Ġwzy": 7454,
      "ciami": 7455,
      "szczony": 7456,
      "ĠÅĽwiÄħtyni": 7457,
      "iste": 7458,
      "Å¼onÄħ": 7459,
      "sik": 7460,
      "ĠGru": 7461,
      "ĠMon": 7462,
      "Ġdecy": 7463,
      "ĠsÄħdu": 7464,
      "Ġscen": 7465,
      "rzÃ³": 7466,
      "ĠorÄĻ": 7467,
      "Ġnaczy": 7468,
      "Ġmargra": 7469,
      "paÅĤa": 7470,
      "ĠtrÃ³j": 7471,
      "ĠustÄĻp": 7472,
      "Ġsztyw": 7473,
      "ĠRi": 7474,
      "Ġprosty": 7475,
      "ĠliÅĽci": 7476,
      "ĠUÅĽmie": 7477,
      "Ġchust": 7478,
      "ĠwpÅĤyw": 7479,
      "Ġpiosen": 7480,
      "ĠrozmyÅĽla": 7481,
      "ĠWidziaÅĤ": 7482,
      "wka": 7483,
      "Ġtkwi": 7484,
      "ĠtoteÅ¼": 7485,
      "Ġmonar": 7486,
      "Ġlosu": 7487,
      "ĠkrzyknÄĻÅĤa": 7488,
      "ĠskoÅĦczyÅĤ": 7489,
      "Ġostatecznie": 7490,
      "Ġupar": 7491,
      "Ġinteligen": 7492,
      "kÅĤym": 7493,
      "cznik": 7494,
      "ĠdaÅĤo": 7495,
      "Ġutrzyma": 7496,
      "ĠBr": 7497,
      "ĠstaraÅĤ": 7498,
      "Ġtrady": 7499,
      "ĠzostawiÅĤ": 7500,
      "snym": 7501,
      "va": 7502,
      "Ġpami": 7503,
      "ĠNiechÅ¼e": 7504,
      "ĠdiabÅĤa": 7505,
      "Ġporozumie": 7506,
      "Ġpoczyna": 7507,
      "ĠkupiÄĩ": 7508,
      "Ġszerokie": 7509,
      "Ġzamil": 7510,
      "ĠÅ¼yjÄħ": 7511,
      "ĠzÅĤoÅĽÄĩ": 7512,
      "Ġpunktu": 7513,
      "Ġitd": 7514,
      "ĠPoza": 7515,
      "ĠZeno": 7516,
      "Ġfotelu": 7517,
      "ĠsprawiedliwoÅĽci": 7518,
      "ĠwokoÅĤo": 7519,
      "Ġcienie": 7520,
      "alne": 7521,
      "Ġburza": 7522,
      "ĠLub": 7523,
      "pen": 7524,
      "owanej": 7525,
      "ĠmarszaÅĤ": 7526,
      "Ġblada": 7527,
      "przÃ³d": 7528,
      "Ġzabiera": 7529,
      "Ġodchodzi": 7530,
      "niÄĻto": 7531,
      "ĠkrÃ³lowi": 7532,
      "ĠsÅĤawy": 7533,
      "ĠzaczÄĻÅĤo": 7534,
      "Ġprawdziwy": 7535,
      "Ġseku": 7536,
      "Czy": 7537,
      "ĠaniÅ¼eli": 7538,
      "ĠprawdÄħ": 7539,
      "Ġpalcem": 7540,
      "Ġwymaga": 7541,
      "pce": 7542,
      "wamy": 7543,
      "Å¼noÅĽci": 7544,
      "Ġtka": 7545,
      "Ġzadzi": 7546,
      "Ġzapi": 7547,
      "Ġzatrzyma": 7548,
      "ĠÅĽwiatÅĤem": 7549,
      "szczÄħc": 7550,
      "Ġprawdziwe": 7551,
      "eszcie": 7552,
      "rowie": 7553,
      "Ġpasa": 7554,
      "Ġdzikie": 7555,
      "ĠwypÄĻ": 7556,
      "ĠzabiÅĤ": 7557,
      "Ġdowcip": 7558,
      "ĠprzeÅĽli": 7559,
      "ĠstÅĤu": 7560,
      "pyty": 7561,
      "ĠzdobyÄĩ": 7562,
      "Ġrozkazu": 7563,
      "ĠodszedÅĤ": 7564,
      "Ġznaczenie": 7565,
      "Ġprote": 7566,
      "ĠUr": 7567,
      "ĠmyÅĽlÄħc": 7568,
      "Ġrozumiesz": 7569,
      "Ġobiedzie": 7570,
      "komo": 7571,
      "Ġwyprost": 7572,
      "Ġniesprawiedli": 7573,
      "interes": 7574,
      "Ġwbrew": 7575,
      "czniej": 7576,
      "dziwszy": 7577,
      "Ġfla": 7578,
      "ĠCzym": 7579,
      "Ġnakry": 7580,
      "ĠNiektÃ³": 7581,
      "ĠEd": 7582,
      "ĠSaint": 7583,
      "ĠWaldem": 7584,
      "ĠkrzyÅ¼a": 7585,
      "ĠciÄĻÅ¼ar": 7586,
      "Ġwroga": 7587,
      "ĠbiorÄħc": 7588,
      "Ġgospodyni": 7589,
      "pione": 7590,
      "ĠZaczÄĻ": 7591,
      "ajesta": 7592,
      "ĠbiaÅĤej": 7593,
      "ĠKsiÄĻÅ¼y": 7594,
      "ĠcenÄĻ": 7595,
      "Ġzmo": 7596,
      "szemu": 7597,
      "nieniem": 7598,
      "ĠsiedzieÄĩ": 7599,
      "ĠmusiaÅĤo": 7600,
      "Ġszab": 7601,
      "Ġsobo": 7602,
      "Ġsmutne": 7603,
      "ĠwszelkÄħ": 7604,
      "Å¼ono": 7605,
      "ĠzÅĤoÅĽci": 7606,
      "ĠÅĤÃ³Å¼ko": 7607,
      "dlÄĻ": 7608,
      "Ġpiecho": 7609,
      "ĠsÅĤab": 7610,
      "ĠmieszkaÅĦcÃ³w": 7611,
      "ĠKmicic": 7612,
      "Ġzacznie": 7613,
      "Ġszmer": 7614,
      "ĠrozwiÄħza": 7615,
      "ĠKaj": 7616,
      "ĠskÄħ": 7617,
      "Ġpozor": 7618,
      "Ġbuj": 7619,
      "Ġpromienie": 7620,
      "Ġwuj": 7621,
      "Ġschodzi": 7622,
      "ĠwkoÅĤo": 7623,
      "ĠSpi": 7624,
      "ĠlubiÅĤ": 7625,
      "Ġkrzywdy": 7626,
      "Ġniema": 7627,
      "Ġuwi": 7628,
      "Ġprzem": 7629,
      "Ġtragi": 7630,
      "Ġosoba": 7631,
      "ĠuciekaÄĩ": 7632,
      "ĠÅ¼oÅĤnierze": 7633,
      "ĠAnglii": 7634,
      "sjÄĻ": 7635,
      "owca": 7636,
      "ĠpokazaÅĤ": 7637,
      "roÅĽ": 7638,
      "ĠÅĽredni": 7639,
      "Ġmundu": 7640,
      "ĠÅ¼ywy": 7641,
      "rzuca": 7642,
      "ĠodpowiadaÅĤ": 7643,
      "brze": 7644,
      "Ġudzie": 7645,
      "ĠMiÅĤoÅĽÄĩ": 7646,
      "Ġdymu": 7647,
      "niÃ³w": 7648,
      "ĠniedÅĤugo": 7649,
      "ĠuÅĽ": 7650,
      "nionej": 7651,
      "Ġdrwi": 7652,
      "ĠMurzy": 7653,
      "Ġzej": 7654,
      "Ġnawy": 7655,
      "ĠrozeÅĽ": 7656,
      "ĠDr": 7657,
      "ĠMoje": 7658,
      "ĠposÄħ": 7659,
      "Ġusposobie": 7660,
      "ĠtreÅĽci": 7661,
      "ĠTomek": 7662,
      "Ġnieustannie": 7663,
      "ĠprzestaÅĤ": 7664,
      "ĠÅĤagodnie": 7665,
      "skaÅĤa": 7666,
      "Ġzaku": 7667,
      "ĠpragnÄĻ": 7668,
      "ĠCiebie": 7669,
      "liÅĤy": 7670,
      "ĠwydawaÅĤ": 7671,
      "Ġznaki": 7672,
      "Ġprzypadkiem": 7673,
      "Ġciotka": 7674,
      "ĠrÃ³Å¼a": 7675,
      "ĠnieszczÄĻÅĽcia": 7676,
      "ĠniektÃ³re": 7677,
      "ĠpaÅĦstw": 7678,
      "ĠzÅĤodziej": 7679,
      "Ġmilczenia": 7680,
      "ĠzapomnieÄĩ": 7681,
      "ĠdowiedziaÅĤ": 7682,
      "ĠdÅĤugiej": 7683,
      "ĠpowtarzaÅĤ": 7684,
      "ĠwÃ³j": 7685,
      "chnienia": 7686,
      "Ġkas": 7687,
      "ĠmÄĻdr": 7688,
      "ĠkoÅĽciÃ³ÅĤ": 7689,
      "jami": 7690,
      "reÅĽ": 7691,
      "Ġboju": 7692,
      "ĠciÄħ": 7693,
      "ĠznalazÅĤem": 7694,
      "lÃ³w": 7695,
      "rans": 7696,
      "ĠMiaÅĤa": 7697,
      "ĠuciekÅĤ": 7698,
      "ĠzamkniÄĻte": 7699,
      "Ġinteresu": 7700,
      "ĠpoÅĤudniu": 7701,
      "Ġpowtarza": 7702,
      "Ġliteratury": 7703,
      "Ġjaj": 7704,
      "Ġwyzy": 7705,
      "ĠAha": 7706,
      "Ġwiej": 7707,
      "Ġduchy": 7708,
      "ĠzdawaÅĤa": 7709,
      "ĠSzczu": 7710,
      "ĠmÄĻÅ¼em": 7711,
      "ĠprÄħd": 7712,
      "Ġana": 7713,
      "Ġprzyda": 7714,
      "Ġstos": 7715,
      "Ġwykwi": 7716,
      "forma": 7717,
      "pnÄħÅĤ": 7718,
      "ĠniewÄħtpliwie": 7719,
      "Ġtalen": 7720,
      "Ġanty": 7721,
      "ĠJÃ³zef": 7722,
      "ĠmgÅĤa": 7723,
      "Ġdziu": 7724,
      "ĠTaka": 7725,
      "ĠJezu": 7726,
      "ian": 7727,
      "ĠÅĽwieÅ¼y": 7728,
      "ĠWiecz": 7729,
      "ĠkoÅĦczy": 7730,
      "Ġpanienka": 7731,
      "ĠopowiadaÄĩ": 7732,
      "ville": 7733,
      "ciÄħgnÄħÅĤ": 7734,
      "mywaÅĤ": 7735,
      "ĠopÅĤa": 7736,
      "Ġburzy": 7737,
      "eczki": 7738,
      "cono": 7739,
      "ĠDobra": 7740,
      "Ġprzym": 7741,
      "Ġeu": 7742,
      "Ġkolanach": 7743,
      "IE": 7744,
      "Ġorszak": 7745,
      "Ġqu": 7746,
      "Ġtk": 7747,
      "Ġbezsi": 7748,
      "ĠmÅĤodÄħ": 7749,
      "ĠWin": 7750,
      "ĠgÅĤÄĻbie": 7751,
      "cieÄĩ": 7752,
      "ĠSama": 7753,
      "ĠgardÅĤo": 7754,
      "ĠZapewne": 7755,
      "czkami": 7756,
      "Ġrozwar": 7757,
      "ĠgÅĤÃ³d": 7758,
      "Ġwojnie": 7759,
      "ĠprzyjemnoÅĽci": 7760,
      "Ġpapieru": 7761,
      "Ġzdej": 7762,
      "Ġustami": 7763,
      "ĠPewnie": 7764,
      "chajÄħc": 7765,
      "ĠpodszedÅĤ": 7766,
      "ĠpuÅĽci": 7767,
      "Ġozd": 7768,
      "Ġzago": 7769,
      "ĠumyÅĽlnie": 7770,
      "ĠOg": 7771,
      "Ġczyste": 7772,
      "Ġlekka": 7773,
      "ĠposÄħg": 7774,
      "Ġobywatel": 7775,
      "dzwo": 7776,
      "Ġprzecho": 7777,
      "ĠTowarzy": 7778,
      "doÅĽÄĩ": 7779,
      "Ġopad": 7780,
      "Ġdniem": 7781,
      "Ġnapra": 7782,
      "Ġumil": 7783,
      "ĠZaÅĽ": 7784,
      "ĠkrÃ³lowej": 7785,
      "Ġsymbo": 7786,
      "Ġocie": 7787,
      "ÅºÄĩ": 7788,
      "czÄĻÅĽciej": 7789,
      "Ġzapat": 7790,
      "ĠpiÃ³r": 7791,
      "ĠFor": 7792,
      "Ġgrobie": 7793,
      "ĠchciaÅĤo": 7794,
      "ĠuwaÅ¼aÅĤ": 7795,
      "ĠIsto": 7796,
      "Ġczysto": 7797,
      "ĠzdarzyÅĤo": 7798,
      "conÄħ": 7799,
      "mentÃ³w": 7800,
      "dziane": 7801,
      "ĠskÃ³rÄĻ": 7802,
      "Ġsceny": 7803,
      "Ġprzedstawia": 7804,
      "Ġdama": 7805,
      "Ġniebi": 7806,
      "ĠwydaÄĩ": 7807,
      "ĠszczÄĻÅĽliwie": 7808,
      "Ġstanowisko": 7809,
      "Ġskier": 7810,
      "Ġzwali": 7811,
      "ĠuczyÄĩ": 7812,
      "ĠgÅĤosie": 7813,
      "Ġrumie": 7814,
      "ĠozwaÅĤ": 7815,
      "ĠwczeÅĽnie": 7816,
      "Ġzagra": 7817,
      "ĠSch": 7818,
      "ĠmiesiÄħce": 7819,
      "Ġczarnym": 7820,
      "Ġswobodnie": 7821,
      "ĠMÅĤody": 7822,
      "ĠFabry": 7823,
      "Ġfakt": 7824,
      "Ġjeziora": 7825,
      "Ġniedaleko": 7826,
      "ologi": 7827,
      "ĠszÅĤy": 7828,
      "ĠJedy": 7829,
      "sunÄĻÅĤa": 7830,
      "ĠznajdowaÅĤ": 7831,
      "ĠStÄħd": 7832,
      "Ġniewiel": 7833,
      "Ġjedne": 7834,
      "ĠÅ¼yci": 7835,
      "ĠÅĤaskÄĻ": 7836,
      "ĠpotrafiÅĤ": 7837,
      "ĠgorÄħcz": 7838,
      "ĠdziewczÄĻta": 7839,
      "Ġprzeze": 7840,
      "Ġblaskiem": 7841,
      "Ġjedyna": 7842,
      "Ġelegan": 7843,
      "szono": 7844,
      "lus": 7845,
      "ĠczyniÅĤ": 7846,
      "ĠWychodzi": 7847,
      "ĠzamknÄħÅĤ": 7848,
      "Ġwalka": 7849,
      "Ġlekarz": 7850,
      "laÅĤo": 7851,
      "Ġgma": 7852,
      "dali": 7853,
      "tyczny": 7854,
      "ĠbawiÄĩ": 7855,
      "ĠpÅĤomieÅĦ": 7856,
      "Ġnieboszczy": 7857,
      "RA": 7858,
      "znÄħ": 7859,
      "ĠÅĽwieci": 7860,
      "ĠprzypomniaÅĤ": 7861,
      "Ġpsycho": 7862,
      "Ġzamor": 7863,
      "Ġchwali": 7864,
      "ĠszeÅĽciu": 7865,
      "Ġstaj": 7866,
      "Ġjaskra": 7867,
      "Ġaksami": 7868,
      "ĠmÄĻÅ¼czyÅºni": 7869,
      "Ġreszty": 7870,
      "ĠwydaÅĤa": 7871,
      "Ġpotrzebuje": 7872,
      "Ġcichym": 7873,
      "ĠzachÄĻ": 7874,
      "dywaÅĤ": 7875,
      "lata": 7876,
      "ĠspaÅĤ": 7877,
      "Ġdziewczynka": 7878,
      "ĠGoÅĽÄĩ": 7879,
      "ĠnÄĻdza": 7880,
      "ĠmÅĤodzieÅĦca": 7881,
      "niam": 7882,
      "Ġnieroz": 7883,
      "Ġzainteres": 7884,
      "ĠObie": 7885,
      "ĠEwa": 7886,
      "Ġzostaje": 7887,
      "ĠgÅĤÄĻbokie": 7888,
      "ĠKtÃ³re": 7889,
      "ĠszczegÃ³lnie": 7890,
      "ĠNareszcie": 7891,
      "Ġzaczer": 7892,
      "ĠprzewaÅ¼nie": 7893,
      "ĠpÅĤaczem": 7894,
      "ĠDuch": 7895,
      "Ġoblicze": 7896,
      "towy": 7897,
      "Ġben": 7898,
      "ĠgÅĤosÃ³w": 7899,
      "ĠgdzieÅ¼": 7900,
      "Ġlor": 7901,
      "ĠzamÄĻ": 7902,
      "wersy": 7903,
      "Ġsprawach": 7904,
      "Ġtchu": 7905,
      "Ġrozg": 7906,
      "cyi": 7907,
      "Ġgrobu": 7908,
      "Ġcierpli": 7909,
      "droÅ¼": 7910,
      "Ġpl": 7911,
      "szysz": 7912,
      "ĠÅĽw": 7913,
      "staw": 7914,
      "ĠIÅ¼": 7915,
      "ĠFre": 7916,
      "ĠWyso": 7917,
      "ĠzakrÄĻ": 7918,
      "Ġwaru": 7919,
      "Ġartyku": 7920,
      "ĠpoÅĤa": 7921,
      "rzysz": 7922,
      "Ġraj": 7923,
      "Ġpowieki": 7924,
      "Ġ10": 7925,
      "Ġwszelki": 7926,
      "ĠzÄĻbami": 7927,
      "ĠpocaÅĤu": 7928,
      "tkÄħ": 7929,
      "lij": 7930,
      "Ġgan": 7931,
      "ĠSÅĤa": 7932,
      "szeniem": 7933,
      "ĠzÅĤoci": 7934,
      "Ġwyrazy": 7935,
      "Ġrozmowie": 7936,
      "Ġuzbro": 7937,
      "Ġstolicy": 7938,
      "Ġdrabi": 7939,
      "rodziej": 7940,
      "bytu": 7941,
      "Ġmigo": 7942,
      "ĠPozna": 7943,
      "Ġbitwy": 7944,
      "dnim": 7945,
      "ĠÅĽwiÄĻte": 7946,
      "Ġprzyjacielem": 7947,
      "Ġcharaktery": 7948,
      "ĠmowÄĻ": 7949,
      "Ġuch": 7950,
      "Ġczela": 7951,
      "ĠrychÅĤo": 7952,
      "Ġzmienia": 7953,
      "Ġfara": 7954,
      "tkach": 7955,
      "Ġjedni": 7956,
      "bacz": 7957,
      "Ġramion": 7958,
      "ĠdlaÅĦ": 7959,
      "Ġzdaniem": 7960,
      "Ġryby": 7961,
      "Ġwieczoru": 7962,
      "rzÃ³dy": 7963,
      "ĠmusiaÅĤem": 7964,
      "ĠzaÅĽmiaÅĤ": 7965,
      "Ġczarna": 7966,
      "ĠCzemuÅ¼": 7967,
      "Ġrozd": 7968,
      "don": 7969,
      "Ġsumienia": 7970,
      "ĠuczuÅĤ": 7971,
      "ĠdoskonaÅĤ": 7972,
      "ĠodezwaÅĤa": 7973,
      "Ġosza": 7974,
      "ĠzastÄĻp": 7975,
      "Ġcios": 7976,
      "ĠFo": 7977,
      "ĠnagÅĤ": 7978,
      "ĠboÅ¼y": 7979,
      "ĠciaÅĤ": 7980,
      "Ġnapis": 7981,
      "ĠodrzekÅĤa": 7982,
      "Ġspotkanie": 7983,
      "ĠwstÄĻp": 7984,
      "nicÄħ": 7985,
      "Ġprzech": 7986,
      "ĠdziesiÄħt": 7987,
      "ĠChar": 7988,
      "cjach": 7989,
      "ĠpowagÄħ": 7990,
      "Å¼onym": 7991,
      "Ġuwiel": 7992,
      "wasz": 7993,
      "ĠAb": 7994,
      "Ġkopa": 7995,
      "Ġprosta": 7996,
      "Ġmuzyki": 7997,
      "nÄħcy": 7998,
      "Ġuszu": 7999,
      "gali": 8000,
      "ĠGer": 8001,
      "Ġkawale": 8002,
      "Ġkarty": 8003,
      "ĠsÅĤaw": 8004,
      "ĠsÅĤaby": 8005,
      "ĠDawid": 8006,
      "ĠuwiÄĻ": 8007,
      "ĠIch": 8008,
      "Ġpuste": 8009,
      "Ġtraf": 8010,
      "ĠÅĤaci": 8011,
      "Ġmroku": 8012,
      "ÅĤoÅ¼yÅĤ": 8013,
      "Ġniezbyt": 8014,
      "Ġprawdziwie": 8015,
      "Ġgrzmo": 8016,
      "czywszy": 8017,
      "waniem": 8018,
      "rywajÄħc": 8019,
      "ĠtÅĤumu": 8020,
      "onym": 8021,
      "ĠdoÅĤu": 8022,
      "Ġaresz": 8023,
      "ĠwydawaÅĤo": 8024,
      "zajem": 8025,
      "ĠdoszedÅĤ": 8026,
      "ĠzapamiÄĻ": 8027,
      "ĠzawziÄĻ": 8028,
      "Ġstarca": 8029,
      "Ġcesarz": 8030,
      "Ġistnienia": 8031,
      "ĠMÃ³gÅĤ": 8032,
      "ĠwyjÅĽcia": 8033,
      "Å¼noÅĽÄĩ": 8034,
      "ĠnastÄħpi": 8035,
      "Ġpocze": 8036,
      "Ġodna": 8037,
      "Ġprzyzwoi": 8038,
      "ĠmocÄħ": 8039,
      "szczam": 8040,
      "ĠniepojÄĻ": 8041,
      "ĠÅĽwiate": 8042,
      "Ġogromny": 8043,
      "Ġprzyzwy": 8044,
      "ĠkazaÅĤa": 8045,
      "anie": 8046,
      "ÅĤku": 8047,
      "owskiej": 8048,
      "niny": 8049,
      "ĠIst": 8050,
      "Ġgrub": 8051,
      "Ġszkole": 8052,
      "ĠsposobnoÅĽci": 8053,
      "ĠtchÃ³": 8054,
      "Ġnapad": 8055,
      "Ġznale": 8056,
      "ĠzawdziÄĻ": 8057,
      "ĠmajÄħtku": 8058,
      "ĠwiÄĻkszej": 8059,
      "ĠKrzyszto": 8060,
      "ĠzginÄħÅĤ": 8061,
      "hel": 8062,
      "rÃ³g": 8063,
      "tujÄħc": 8064,
      "ĠgÅĤowami": 8065,
      "Ġlistu": 8066,
      "Ġjedynym": 8067,
      "lancho": 8068,
      "Ġhrabiego": 8069,
      "Ġ9": 8070,
      "Ġorygi": 8071,
      "Ġkobiecie": 8072,
      "ĠzwaÅ¼": 8073,
      "ĠkÅĤo": 8074,
      "ĠniÅºli": 8075,
      "ĠpodwÃ³j": 8076,
      "ĠsÄħdzi": 8077,
      "ĠÅģo": 8078,
      "Ġsmaku": 8079,
      "ĠpiÃ³ro": 8080,
      "ĠÅĽniadanie": 8081,
      "Ġcudzoziem": 8082,
      "Ġniedob": 8083,
      "ĠwyksztaÅĤ": 8084,
      "ĠtwÄħ": 8085,
      "Ġpoet": 8086,
      "Ġnisko": 8087,
      "Ġformy": 8088,
      "Ġobcych": 8089,
      "ĠprzedsiÄĻw": 8090,
      "ĠPiÄĻ": 8091,
      "Ġprzyprowa": 8092,
      "Ġkrzykiem": 8093,
      "Ġszlachec": 8094,
      "Ġzanied": 8095,
      "dszy": 8096,
      "ras": 8097,
      "szeli": 8098,
      "niono": 8099,
      "Å¼aÄĩ": 8100,
      "Ġpragnienie": 8101,
      "Ġokrzyk": 8102,
      "Ġarysto": 8103,
      "Ġdek": 8104,
      "Ġgatu": 8105,
      "ĠNiestety": 8106,
      "ĠpuÅĽciÅĤ": 8107,
      "trafi": 8108,
      "ĠwrÃ³ciÅĤa": 8109,
      "ĠpoczÄĻli": 8110,
      "ĠprzechodzÄħc": 8111,
      "ĠmiÅĤe": 8112,
      "ĠgoÅĽcia": 8113,
      "paÅĽÄĩ": 8114,
      "ĠwskazujÄħc": 8115,
      "Ġnieprzyjaciel": 8116,
      "Ġherba": 8117,
      "Ġnur": 8118,
      "ĠAno": 8119,
      "Ġrysu": 8120,
      "ĠzdaÅĤo": 8121,
      "ĠWidaÄĩ": 8122,
      "Ġdysku": 8123,
      "ĠpoczÄħtek": 8124,
      "Ġmodlitwy": 8125,
      "ĠĠ": 8126,
      "liwych": 8127,
      "Ġkula": 8128,
      "ĠbezpoÅĽre": 8129,
      "dej": 8130,
      "Ġnastro": 8131,
      "Ġkoron": 8132,
      "ĠspÃ³": 8133,
      "ajÄħcÄħ": 8134,
      "dzonego": 8135,
      "Ġpunkt": 8136,
      "ĠÅĽwieÅ¼e": 8137,
      "ĠwydaÅĤo": 8138,
      "Ġszklan": 8139,
      "Ġwestchnie": 8140,
      "orst": 8141,
      "ĠBole": 8142,
      "ĠzmieniÅĤ": 8143,
      "ĠrozumiaÅĤ": 8144,
      "ĠpoczÄĻÅĤy": 8145,
      "Ġlip": 8146,
      "Ġjasny": 8147,
      "ĠpogrÄħÅ¼": 8148,
      "Ġwszelkiego": 8149,
      "Ġkochanka": 8150,
      "ĠnieÅĽmiaÅĤo": 8151,
      "jga": 8152,
      "Ġniena": 8153,
      "ĠKsiÄħ": 8154,
      "szkiem": 8155,
      "Ġczwo": 8156,
      "ĠskrzydeÅĤ": 8157,
      "Ġnikczem": 8158,
      "Na": 8159,
      "ĠUcie": 8160,
      "Ġwicher": 8161,
      "ĠPiotr": 8162,
      "Ġuchodzi": 8163,
      "ĠPola": 8164,
      "Ġwodz": 8165,
      "ĠstojÄħc": 8166,
      "Ġlogi": 8167,
      "ĠwywoÅĤa": 8168,
      "Ġfilozof": 8169,
      "Ġnaturalnie": 8170,
      "ĠPrecz": 8171,
      "ĠklÄħ": 8172,
      "ĠZgo": 8173,
      "Ã³zÅĤ": 8174,
      "ĠmÄħdry": 8175,
      "ĠZnam": 8176,
      "ĠopowiedziaÅĤ": 8177,
      "ryn": 8178,
      "ĠAN": 8179,
      "dzonym": 8180,
      "ĠmiaÅĤam": 8181,
      "Ġniezad": 8182,
      "ĠTutaj": 8183,
      "Ġlepszego": 8184,
      "ĠsprawiedliwoÅĽÄĩ": 8185,
      "ĠzatrzymaÄĩ": 8186,
      "poli": 8187,
      "Ġkapry": 8188,
      "Ġlich": 8189,
      "Ġtowarzysza": 8190,
      "ĠsÅĤoÅĦcem": 8191,
      "ĠukryÄĩ": 8192,
      "ĠpozostaÄĩ": 8193,
      "ĠumysÅĤu": 8194,
      "rku": 8195,
      "Ġbarwy": 8196,
      "ĠpoczuÅĤ": 8197,
      "Ġsklep": 8198,
      "ĠwesoÅĤy": 8199,
      "Ġfoto": 8200,
      "ĠPierw": 8201,
      "ĠspoÅĤeczeÅĦstwa": 8202,
      "Ġzwar": 8203,
      "Ġbraku": 8204,
      "ĠporwaÅĤ": 8205,
      "ĠsÅĤuÅ¼bÄĻ": 8206,
      "ĠpaÅĤac": 8207,
      "ĠwestchnÄħÅĤ": 8208,
      "ĠZygmu": 8209,
      "karz": 8210,
      "Ġbiedna": 8211,
      "ĠPanu": 8212,
      "Ġzgry": 8213,
      "Ġtan": 8214,
      "chnÄħÄĩ": 8215,
      "owska": 8216,
      "ĠCam": 8217,
      "ĠBen": 8218,
      "Ġrozstrzy": 8219,
      "ĠHel": 8220,
      "Ġjakimi": 8221,
      "Ġtrakt": 8222,
      "ĠwracaÄĩ": 8223,
      "Ġrogu": 8224,
      "ĠÅĽlep": 8225,
      "ĠzrobiÄĻ": 8226,
      "ĠpiÄĻknoÅĽÄĩ": 8227,
      "ĠrozumieÄĩ": 8228,
      "ĠmÄĻÅ¼czyzny": 8229,
      "Ġwyrok": 8230,
      "Ġozdo": 8231,
      "Ġdoma": 8232,
      "ĠzdjÄĻ": 8233,
      "kowej": 8234,
      "ĠprzeÅĽla": 8235,
      "ĠKle": 8236,
      "ĠbliÅ¼": 8237,
      "Åºdzi": 8238,
      "Ġczasami": 8239,
      "czÄħt": 8240,
      "Ġmiejscach": 8241,
      "ĠKata": 8242,
      "ĠbiaÅĤego": 8243,
      "ĠnienawiÅĽÄĩ": 8244,
      "Ġdodatku": 8245,
      "Ġwer": 8246,
      "Ġmgnie": 8247,
      "Ġpisto": 8248,
      "ĠbramÄĻ": 8249,
      "kazaÅĤo": 8250,
      "Ġwiersz": 8251,
      "ĠczekajÄħc": 8252,
      "Ġkwad": 8253,
      "ĠLondy": 8254,
      "ĠSmith": 8255,
      "ĠubÃ³": 8256,
      "ĠciÄĻÅ¼ki": 8257,
      "Ġostry": 8258,
      "ĠMÃ³wiÄĻ": 8259,
      "Ġprzekle": 8260,
      "ĠÅĽmiaÅĤy": 8261,
      "Ġciche": 8262,
      "Ġwolny": 8263,
      "ĠGÅĤos": 8264,
      "Ġznika": 8265,
      "Ġmajesta": 8266,
      "ĠWszakÅ¼e": 8267,
      "ÅĤaka": 8268,
      "ĠpoÅĤowie": 8269,
      "ĠMak": 8270,
      "mes": 8271,
      "Ġklasz": 8272,
      "Ġstrzela": 8273,
      "Ġlepsze": 8274,
      "Ġminister": 8275,
      "Ġuniesie": 8276,
      "Ġprzywy": 8277,
      "ĠpiÄĻÅĽci": 8278,
      "pety": 8279,
      "ĠgÅĤupie": 8280,
      "jÄħcymi": 8281,
      "ĠRafaÅĤ": 8282,
      "ĠRzymu": 8283,
      "iÅĤo": 8284,
      "wcy": 8285,
      "Ġber": 8286,
      "wiar": 8287,
      "Ġtygodnie": 8288,
      "ĠzamyÅĽ": 8289,
      "Ġwybiera": 8290,
      "dan": 8291,
      "Ġszkol": 8292,
      "ĠczÅĤe": 8293,
      "ĠOba": 8294,
      "Ġburz": 8295,
      "Ġepi": 8296,
      "ĠciemnoÅĽÄĩ": 8297,
      "Ġmeto": 8298,
      "Ġmaja": 8299,
      "ĠkoÅĤnie": 8300,
      "pospolitej": 8301,
      "ĠwaÅĤ": 8302,
      "Ġzachodzi": 8303,
      "ĠÅ¼aÅĤu": 8304,
      "dzonej": 8305,
      "Ġtowarzyszy": 8306,
      "ĠzwÅĤoki": 8307,
      "Ġniebios": 8308,
      "styczne": 8309,
      "Ġjaski": 8310,
      "Ġzamyka": 8311,
      "Ġwstydu": 8312,
      "szty": 8313,
      "ĠMaj": 8314,
      "Ġzapowie": 8315,
      "Ġdeszczu": 8316,
      "ĠwiÄĻkszy": 8317,
      "Ġrycerzy": 8318,
      "krzy": 8319,
      "ĠWoÅĤ": 8320,
      "ĠTyÅĽ": 8321,
      "Ġlekce": 8322,
      "Ġrozpozna": 8323,
      "ĠgÅĤÃ³wnie": 8324,
      "Ġetc": 8325,
      "ĠgrÃ³b": 8326,
      "Ġrozsy": 8327,
      "ĠmieÅĽci": 8328,
      "Ġpozostaje": 8329,
      "ĠChcesz": 8330,
      "kowaÅĤ": 8331,
      "Ġsar": 8332,
      "ĠrozpÄĻ": 8333,
      "biÄħ": 8334,
      "Ġsoli": 8335,
      "giego": 8336,
      "ĠciemnÄħ": 8337,
      "ĠniÅ¼ej": 8338,
      "Ġnosa": 8339,
      "ĠMojÅ¼e": 8340,
      "nicki": 8341,
      "ĠÅĽcianach": 8342,
      "glÄħdaÅĤa": 8343,
      "ĠwyjÄħtk": 8344,
      "car": 8345,
      "Ġwpu": 8346,
      "Ġwysy": 8347,
      "ĠtyÅĽ": 8348,
      "Ġkomo": 8349,
      "ĠTwÃ³j": 8350,
      "ĠZnÃ³w": 8351,
      "gina": 8352,
      "owolnie": 8353,
      "dziem": 8354,
      "Ġboja": 8355,
      "Ġrzec": 8356,
      "ĠWol": 8357,
      "ĠrozmawiaÄĩ": 8358,
      "Ġkwit": 8359,
      "ĠÅĽwiadec": 8360,
      "ĠzniknÄħÅĤ": 8361,
      "Ġprzerywa": 8362,
      "Ġkopy": 8363,
      "blio": 8364,
      "Ġtrage": 8365,
      "ĠzmarÅĤ": 8366,
      "Ġplecami": 8367,
      "Ġubranie": 8368,
      "niÄĻtymi": 8369,
      "ĠnajwiÄĻkszÄħ": 8370,
      "Ġplo": 8371,
      "Ġigra": 8372,
      "Ġprzele": 8373,
      "lant": 8374,
      "Ġdach": 8375,
      "ĠDoktor": 8376,
      "ĠrÃ³Å¼no": 8377,
      "Ġpolskiego": 8378,
      "Ġwspomnienia": 8379,
      "Ġteatru": 8380,
      "Ġnieobec": 8381,
      "ĠStaÅĤ": 8382,
      "Ġfali": 8383,
      "Ġkompa": 8384,
      "Ġsposobu": 8385,
      "ĠdziewiÄĻÄĩ": 8386,
      "nen": 8387,
      "Ġgimna": 8388,
      "ĠminÄĻ": 8389,
      "ĠToma": 8390,
      "ĠJanek": 8391,
      "ĠwprzÃ³d": 8392,
      "Ġulicach": 8393,
      "Ġbliska": 8394,
      "ĠjÄĻzykiem": 8395,
      "ĠobecnoÅĽci": 8396,
      "ĠkrÃ³tkim": 8397,
      "ĠpodnieÅĽÄĩ": 8398,
      "rzajÄħ": 8399,
      "ĠobÅĤÄĻ": 8400,
      "ĠPoli": 8401,
      "Ġogniu": 8402,
      "Ġrui": 8403,
      "Ġprzekonania": 8404,
      "ĠwyobraÅ¼e": 8405,
      "ĠRzekÅĤ": 8406,
      "ÅĽlach": 8407,
      "Ġniesie": 8408,
      "cin": 8409,
      "ĠOdy": 8410,
      "Ġkawa": 8411,
      "chani": 8412,
      "Ġcien": 8413,
      "ĠmÄĻÅ¼Ã³w": 8414,
      "ĠtajemnicÄĻ": 8415,
      "lsze": 8416,
      "rzcie": 8417,
      "ĠutrzymaÄĩ": 8418,
      "ĠBaj": 8419,
      "Ġlinii": 8420,
      "nionego": 8421,
      "ĠLedwie": 8422,
      "Ġwalce": 8423,
      "ĠczoÅĤem": 8424,
      "ĠszczÄĻÅĽliwa": 8425,
      "Ġzapomnia": 8426,
      "ĠPÃ³Åºniej": 8427,
      "ĠwrÄĻcz": 8428,
      "Ġpopo": 8429,
      "Ġodet": 8430,
      "ĠstawaÅĤ": 8431,
      "ĠwÅĤaÅĽciciel": 8432,
      "ĠpoÅĤowy": 8433,
      "ĠwchodzÄħc": 8434,
      "noszÄĻ": 8435,
      "pole": 8436,
      "Ġznaczenia": 8437,
      "graf": 8438,
      "ĠZnaj": 8439,
      "Ġprzyszli": 8440,
      "Ġtek": 8441,
      "som": 8442,
      "dowali": 8443,
      "ĠopuÅĽciÄĩ": 8444,
      "Ġwiosen": 8445,
      "Ġochoty": 8446,
      "ĠKilka": 8447,
      "dek": 8448,
      "ĠumiaÅĤa": 8449,
      "ĠNiemiec": 8450,
      "pieÅĦ": 8451,
      "ĠsÅĤuÅ¼y": 8452,
      "ĠksiÄĻÅ¼na": 8453,
      "Ġmelancho": 8454,
      "Ġpromieni": 8455,
      "ĠDziÄĻki": 8456,
      "Ġsalonu": 8457,
      "atki": 8458,
      "Ġprzedpo": 8459,
      "ĠStaÅĽ": 8460,
      "Ġnajlepsze": 8461,
      "ĠniebezpieczeÅĦstwa": 8462,
      "Ġodgad": 8463,
      "ĠiloÅĽÄĩ": 8464,
      "Ġchlu": 8465,
      "tycznych": 8466,
      "ĠmÃ³wiono": 8467,
      "Ġliczne": 8468,
      "Ġzielone": 8469,
      "Ġludzka": 8470,
      "ger": 8471,
      "Ġnadal": 8472,
      "Ġwytrzy": 8473,
      "woÅĤa": 8474,
      "Ġrozry": 8475,
      "obo": 8476,
      "prawÄĻ": 8477,
      "ĠpÅĤomie": 8478,
      "Ġszlachcic": 8479,
      "ĠkÄħt": 8480,
      "tyzm": 8481,
      "ĠÅļmierÄĩ": 8482,
      "ĠupadÅĤ": 8483,
      "Ġgryz": 8484,
      "ĠÅĽmiaÅĤa": 8485,
      "Ġmiesza": 8486,
      "niÄĻtym": 8487,
      "Ġsufi": 8488,
      "ĠwprzÃ³dy": 8489,
      "Ġzasadni": 8490,
      "Ġroztrop": 8491,
      "tce": 8492,
      "Ġwierzch": 8493,
      "des": 8494,
      "ĠoglÄħdaÄĩ": 8495,
      "dzali": 8496,
      "ĠwalczyÄĩ": 8497,
      "Ġobietni": 8498,
      "ĠmaÅĤÅ¼eÅĦstwa": 8499,
      "Mo": 8500,
      "lÃ³": 8501,
      "ĠucaÅĤ": 8502,
      "ĠodrÄĻ": 8503,
      "Ġspry": 8504,
      "Ġnadej": 8505,
      "Ġrezy": 8506,
      "ĠByli": 8507,
      "Ġniejako": 8508,
      "Ġuczuciem": 8509,
      "onej": 8510,
      "Ġman": 8511,
      "czoÅĽci": 8512,
      "Ġtwojego": 8513,
      "ĠKomi": 8514,
      "ĠcaÅĤych": 8515,
      "ĠciÄħgnie": 8516,
      "ĠrozkoszÄħ": 8517,
      "Ġjakkolwiek": 8518,
      "ĠNiez": 8519,
      "Ġproste": 8520,
      "ĠÅĽmieje": 8521,
      "ĠznuÅ¼": 8522,
      "ĠzakÅĤopo": 8523,
      "Ġpokoi": 8524,
      "Ġnadzieja": 8525,
      "ĠÅĤÃ³dÅº": 8526,
      "kÅĤych": 8527,
      "Ġzarob": 8528,
      "Ġsztur": 8529,
      "Ġsztuce": 8530,
      "Ġbrzegi": 8531,
      "Ġhotelu": 8532,
      "Ġgotowe": 8533,
      "Ġkapitana": 8534,
      "ĠgaÅĤÄĻzie": 8535,
      "ĠposiadaÅĤ": 8536,
      "ĠbÅĤogosÅĤawie": 8537,
      "lla": 8538,
      "aÅĤÄħ": 8539,
      "rana": 8540,
      "ĠpracÄħ": 8541,
      "ĠnosiÅĤ": 8542,
      "Ġskom": 8543,
      "Ġszaf": 8544,
      "mentu": 8545,
      "Ġpolskich": 8546,
      "ĠpoÅĽwiÄĻc": 8547,
      "ĠÅ¼ywota": 8548,
      "tkie": 8549,
      "taÅĤo": 8550,
      "Ġbel": 8551,
      "ĠPowo": 8552,
      "Ġprzywie": 8553,
      "bienie": 8554,
      "alny": 8555,
      "Ġserc": 8556,
      "owuje": 8557,
      "ĠzabÃ³j": 8558,
      "Ġuprzejmie": 8559,
      "czci": 8560,
      "ĠwytÄĻ": 8561,
      "ĠÅĤadnie": 8562,
      "ima": 8563,
      "ĠwyÅ¼y": 8564,
      "Ġstal": 8565,
      "utra": 8566,
      "Ġszeptem": 8567,
      "ĠostatniÄħ": 8568,
      "ĠwziÄĻli": 8569,
      "Ġkultu": 8570,
      "ĠNaturalnie": 8571,
      "ĠstÄħ": 8572,
      "Ġstronach": 8573,
      "ĠFilip": 8574,
      "Ġkoleg": 8575,
      "ĠspadÅĤ": 8576,
      "ĠspojrzeÄĩ": 8577,
      "ĠpomyÅĽleÄĩ": 8578,
      "ĠobowiÄħzek": 8579,
      "ĠStefan": 8580,
      "Ġrej": 8581,
      "ĠchodziÅĤo": 8582,
      "Ġguzi": 8583,
      "ĠcaÅĤoÅĽci": 8584,
      "ctwem": 8585,
      "Ġzre": 8586,
      "ĠPet": 8587,
      "tory": 8588,
      "pina": 8589,
      "gia": 8590,
      "ĠMiaÅĤem": 8591,
      "rio": 8592,
      "ĠokrÄĻtu": 8593,
      "ĠodejÅĽÄĩ": 8594,
      "ĠzaczÄħÅĤem": 8595,
      "Ġczynu": 8596,
      "baÄĩ": 8597,
      "ĠzapaÅĤem": 8598,
      "Ġplac": 8599,
      "Ġzmiany": 8600,
      "pak": 8601,
      "nieÅĽli": 8602,
      "Ġposie": 8603,
      "ĠOby": 8604,
      "Ġjadal": 8605,
      "Ġnoce": 8606,
      "giej": 8607,
      "ĠkrÃ³tki": 8608,
      "ĠKaÅĽka": 8609,
      "ĠzachowaÄĩ": 8610,
      "ĠczapkÄĻ": 8611,
      "cjo": 8612,
      "Ġgoni": 8613,
      "ĠKrzyÅ¼": 8614,
      "ĠodlegÅĤoÅĽci": 8615,
      "rne": 8616,
      "Ġwrza": 8617,
      "Å¼nym": 8618,
      "Ġdna": 8619,
      "telek": 8620,
      "Ġjede": 8621,
      "ĠdawaÄĩ": 8622,
      "Ġsekreta": 8623,
      "skaku": 8624,
      "ĠpoÅĽrodku": 8625,
      "ĠszukajÄħc": 8626,
      "ĠgadaÄĩ": 8627,
      "Ġego": 8628,
      "ÅĤaÅĤem": 8629,
      "roku": 8630,
      "ĠÅ¼ela": 8631,
      "ĠroÅĽnie": 8632,
      "tyki": 8633,
      "dniÄħ": 8634,
      "Ġsmutno": 8635,
      "Ġuczyni": 8636,
      "ĠsposobnoÅĽÄĩ": 8637,
      "ĠkÅĤad": 8638,
      "lili": 8639,
      "ĠpowiÄĻk": 8640,
      "ĠNiko": 8641,
      "ĠPanowie": 8642,
      "ĠÅĽrodkÃ³w": 8643,
      "szonych": 8644,
      "ĠprzyczynÄħ": 8645,
      "ÅĽwiÄĻt": 8646,
      "Ġsubtel": 8647,
      "ĠWidocznie": 8648,
      "Ġwzra": 8649,
      "alnie": 8650,
      "ĠojcÃ³w": 8651,
      "Ġsukien": 8652,
      "ĠÃ³wdzie": 8653,
      "Ġstosunek": 8654,
      "ĠznieÅĽÄĩ": 8655,
      "Ġceremo": 8656,
      "ĠwtrÄħciÅĤ": 8657,
      "tnoÅĽciÄħ": 8658,
      "tane": 8659,
      "ĠnajwaÅ¼": 8660,
      "ĠÅĤat": 8661,
      "ĠzbÃ³j": 8662,
      "Ġordyna": 8663,
      "Å¼onego": 8664,
      "ĠSokratesie": 8665,
      "Ġsnem": 8666,
      "Ġuciec": 8667,
      "ĠumarÅĤa": 8668,
      "ĠniektÃ³rych": 8669,
      "Ġsytuacji": 8670,
      "ĠweÅĤ": 8671,
      "Ġoddzie": 8672,
      "Ġgrana": 8673,
      "Ġbrzegiem": 8674,
      "ĠwyjaÅĽ": 8675,
      "Ġhonoru": 8676,
      "Ġzanadto": 8677,
      "aÅĤych": 8678,
      "ĠznajÄħ": 8679,
      "Ġdrobia": 8680,
      "Ġmieszkaniu": 8681,
      "nictwa": 8682,
      "ĠJadwi": 8683,
      "tak": 8684,
      "ĠposiÅĤ": 8685,
      "Ġkier": 8686,
      "ĠlasÃ³w": 8687,
      "Ġramionach": 8688,
      "?âĢĿ.": 8689,
      "ĠwstÄĻ": 8690,
      "ĠdopeÅĤ": 8691,
      "praszam": 8692,
      "ĠskoczyÅĤ": 8693,
      "ĠsztukÄĻ": 8694,
      "Ġzimna": 8695,
      "Ġsiostrze": 8696,
      "Å»": 8697,
      "Ġtwym": 8698,
      "Ġomy": 8699,
      "Ġoczom": 8700,
      "szeÅĦ": 8701,
      "los": 8702,
      "ĠczÄĻÅĽciej": 8703,
      "ĠwolaÅĤ": 8704,
      "Ġreszta": 8705,
      "owiadam": 8706,
      "kowych": 8707,
      "tz": 8708,
      "mij": 8709,
      "chodu": 8710,
      "ĠÅļmie": 8711,
      "ĠszczÄĻÅĽciem": 8712,
      "ĠpodÅĤodze": 8713,
      "ĠnieskoÅĦ": 8714,
      "ĠzaÅ¼y": 8715,
      "ziÅĤ": 8716,
      "Ġwiersze": 8717,
      "ĠobojÄĻtnie": 8718,
      "Ġsal": 8719,
      "Ġnast": 8720,
      "atr": 8721,
      "Ġautora": 8722,
      "Ġpsychi": 8723,
      "Ġjedwab": 8724,
      "ĠPencroff": 8725,
      "kakro": 8726,
      "ĠpodziÄĻk": 8727,
      "ĠczÃ³ÅĤ": 8728,
      "Ġrysy": 8729,
      "ĠczuÅĤem": 8730,
      "Ġpolskiej": 8731,
      "Ġpalcach": 8732,
      "Ġpoprzednio": 8733,
      "ĠwyobraziÄĩ": 8734,
      "cego": 8735,
      "gru": 8736,
      "ĠnaÅĤo": 8737,
      "ĠPal": 8738,
      "ĠDia": 8739,
      "Ġinstru": 8740,
      "Ġpolicji": 8741,
      "Ġstopniu": 8742,
      "Ġdozor": 8743,
      "ĠJakiÅĽ": 8744,
      "jnych": 8745,
      "Ġpalec": 8746,
      "siÄħg": 8747,
      "ĠmÃ³zg": 8748,
      "Ġsiedzieli": 8749,
      "Ġwyrazu": 8750,
      "ĠleÅ¼aÅĤy": 8751,
      "ĠpojÄĻcie": 8752,
      "ĠuwaÅ¼aÄĩ": 8753,
      "ĠDrugi": 8754,
      "ĠJednakÅ¼e": 8755,
      "ĠpamiÄħt": 8756,
      "ĠZapom": 8757,
      "ĠÅĽpiewaÄĩ": 8758,
      "ĠÃ³s": 8759,
      "Åģ": 8760,
      "Ġdno": 8761,
      "ĠTre": 8762,
      "tela": 8763,
      "Ġrozrzu": 8764,
      "Ġciemnych": 8765,
      "ament": 8766,
      "ĠnajczÄĻÅĽciej": 8767,
      "ĠkrzyczaÅĤ": 8768,
      "ĠnieznoÅĽ": 8769,
      "Ġwszelkiej": 8770,
      "ĠAntek": 8771,
      "ĠstaroÅĽci": 8772,
      "Ġtrybu": 8773,
      "ĠanioÅĤ": 8774,
      "ĠdoroÅ¼": 8775,
      "ĠMaÅĤgo": 8776,
      "Ġpoci": 8777,
      "ĠpojÄħÄĩ": 8778,
      "ĠujÄĻ": 8779,
      "ĠWprawdzie": 8780,
      "czeki": 8781,
      "ĠBur": 8782,
      "ĠPrzecie": 8783,
      "towaÅĤa": 8784,
      "Ġilu": 8785,
      "ĠobÅĤu": 8786,
      "Ġkapli": 8787,
      "Ġstawia": 8788,
      "Ġryt": 8789,
      "ĠnazwaÄĩ": 8790,
      "Ġplecach": 8791,
      "Ġfunk": 8792,
      "ĠczterdzieÅĽci": 8793,
      "ĠbezwzglÄĻ": 8794,
      "caÅĤa": 8795,
      "rny": 8796,
      "Ġdogo": 8797,
      "Ġober": 8798,
      "ĠUwaÅ¼": 8799,
      "Ġkarabi": 8800,
      "Ġfala": 8801,
      "ĠzwiÄĻ": 8802,
      "szczegÃ³l": 8803,
      "Ġkuli": 8804,
      "ĠrÃ³wnowa": 8805,
      "ing": 8806,
      "jeÅ¼dÅ¼aÅĤ": 8807,
      "Ġpustyni": 8808,
      "wanych": 8809,
      "ÅĦczyÅĤ": 8810,
      "enta": 8811,
      "ĠÅ¼u": 8812,
      "Ġeko": 8813,
      "ĠMaÄĩ": 8814,
      "ĠnazywaÅĤ": 8815,
      "Ġzemsty": 8816,
      "ER": 8817,
      "ĠpoÅĽcie": 8818,
      "Ġmierze": 8819,
      "ĠPrzypom": 8820,
      "Ġzmart": 8821,
      "Ġznajomych": 8822,
      "ĠzwrÃ³ciÅĤa": 8823,
      "ajÄħca": 8824,
      "ĠbiÅĤ": 8825,
      "Ġnieprzytom": 8826,
      "Ġpowrotu": 8827,
      "Ġwierzcho": 8828,
      "niesz": 8829,
      "ĠpokÅĤad": 8830,
      "Ġwywie": 8831,
      "ĠPÅĤo": 8832,
      "Ġtyp": 8833,
      "ĠStrze": 8834,
      "ĠZer": 8835,
      "ĠJeste": 8836,
      "Ġostatnia": 8837,
      "Ġciemnej": 8838,
      "ĠpoÅĤudnia": 8839,
      "Ġniezawo": 8840,
      "ĠIzabe": 8841,
      "Ġplam": 8842,
      "akami": 8843,
      "Ġkark": 8844,
      "Ġszlachci": 8845,
      "Ġsilne": 8846,
      "dzieliÄĩ": 8847,
      "rzami": 8848,
      "ownikÃ³w": 8849,
      "Ġdzikich": 8850,
      "Ġduchem": 8851,
      "ĠkrzesÅĤo": 8852,
      "ĠpatrzÄħ": 8853,
      "ĠHrabia": 8854,
      "ĠczujÄħc": 8855,
      "Ġtrawy": 8856,
      "ĠgÃ³rach": 8857,
      "ĠÅĤosko": 8858,
      "Ġsena": 8859,
      "ĠciepÅĤo": 8860,
      "Ġniecierpliwie": 8861,
      "ĠwspaniaÅĤe": 8862,
      "ĠgaÅĤÄħz": 8863,
      "Ġprawdopodobnie": 8864,
      "puje": 8865,
      "ĠkrzeÅĽle": 8866,
      "ĠnienawiÅĽci": 8867,
      "stia": 8868,
      "ĠMur": 8869,
      "ĠMamy": 8870,
      "Ġwiara": 8871,
      "ĠpudeÅĤ": 8872,
      "ĠchÅĤopa": 8873,
      "omego": 8874,
      "ĠAnna": 8875,
      "Ġskarby": 8876,
      "ĠwspÃ³lnego": 8877,
      "ĠsmÄĻ": 8878,
      "Ġdotyka": 8879,
      "ĠCiÄħg": 8880,
      "Ġtryumf": 8881,
      "ĠSzkoda": 8882,
      "Ġpostrze": 8883,
      "Ġgmi": 8884,
      "cel": 8885,
      "ĠrzekÄĻ": 8886,
      "Ġzgas": 8887,
      "Ġobozu": 8888,
      "ĠBisku": 8889,
      "ĠdÅºwiÄĻki": 8890,
      "ĠmÄħdroÅĽci": 8891,
      "Ġcharakteru": 8892,
      "Ġtat": 8893,
      "cisz": 8894,
      "Ġunosi": 8895,
      "cych": 8896,
      "ĠchodÅº": 8897,
      "ĠÅĤÃ³d": 8898,
      "ĠstraÅ¼y": 8899,
      "ĠpiÄĻknego": 8900,
      "Ġnazbyt": 8901,
      "ĠLepiej": 8902,
      "ĠopowiedzieÄĩ": 8903,
      "Ġame": 8904,
      "ĠzwiÄħzek": 8905,
      "Ġfilozofii": 8906,
      "Ġzwal": 8907,
      "ĠjechaÅĤ": 8908,
      "Ġmoment": 8909,
      "ĠPrzede": 8910,
      "ĠwaÅ¼ne": 8911,
      "ÅĦstwu": 8912,
      "Ġcelem": 8913,
      "Ġczerwony": 8914,
      "ĠsukniÄĻ": 8915,
      "Ġpsi": 8916,
      "wieni": 8917,
      "ĠkrÃ³lÃ³w": 8918,
      "ĠzostawiÄĩ": 8919,
      "ĠCieka": 8920,
      "Ġniemo": 8921,
      "ĠczyniÄħ": 8922,
      "soby": 8923,
      "ĠbÄĻdziecie": 8924,
      "Ġrys": 8925,
      "Ġpowinie": 8926,
      "Ġparku": 8927,
      "ĠÅ»egna": 8928,
      "Ġgrube": 8929,
      "wajÄħcych": 8930,
      "ĠSyn": 8931,
      "raÅĤy": 8932,
      "snych": 8933,
      "tkami": 8934,
      "wskiej": 8935,
      "Ġironi": 8936,
      "Ġdachu": 8937,
      "Ġtroski": 8938,
      "ĠbÅĤaga": 8939,
      "ĠzÅĤow": 8940,
      "ĠgoÅĤÄĻ": 8941,
      "Ġdzia": 8942,
      "ĠmÃ³zgu": 8943,
      "Ġwyku": 8944,
      "ĠWspo": 8945,
      "ĠmogÅĤaby": 8946,
      "ĠOjcze": 8947,
      "ĠotworzyÄĩ": 8948,
      "ĠkrÃ³tkie": 8949,
      "Ġatmosfe": 8950,
      "ĠtrwaÅĤ": 8951,
      "Ġwyci": 8952,
      "ĠgoÅĽcie": 8953,
      "ĠÅ¹": 8954,
      "ĠrobotÄĻ": 8955,
      "Ġcukier": 8956,
      "ĠmieszkaÅĤ": 8957,
      "Ġzwol": 8958,
      "Ġimienia": 8959,
      "kaza": 8960,
      "Ġprzepad": 8961,
      "Ġchro": 8962,
      "Ġros": 8963,
      "ĠHie": 8964,
      "ĠsÅĤuchaj": 8965,
      "ĠzÅĤoÅ¼yÅĤ": 8966,
      "ĠnauczyÅĤ": 8967,
      "Ġpoczucie": 8968,
      "ĠdajÄĻ": 8969,
      "ĠzazdroÅĽci": 8970,
      "doba": 8971,
      "spe": 8972,
      "ĠWs": 8973,
      "manie": 8974,
      "Ġdawnego": 8975,
      "ĠChciaÅĤa": 8976,
      "ĠplÄħ": 8977,
      "ĠbÅĤÄħd": 8978,
      "stawiÅĤ": 8979,
      "rzonych": 8980,
      "Ġtatu": 8981,
      "owcÃ³w": 8982,
      "Ġprzet": 8983,
      "ĠgÅĤÄĻbokim": 8984,
      "Ġwynik": 8985,
      "cemy": 8986,
      "ĠwiÄĻksza": 8987,
      "gent": 8988,
      "ÅĤujÄħc": 8989,
      "ĠtejÅ¼e": 8990,
      "dzeni": 8991,
      "Ġpul": 8992,
      "ĠpoÅ¼ar": 8993,
      "Ġzbior": 8994,
      "ĠprzeciÄĻ": 8995,
      "ĠSmu": 8996,
      "ĠmÅĤodym": 8997,
      "ĠzajÄĻty": 8998,
      "Ġstryj": 8999,
      "Ġfolwar": 9000,
      "bliote": 9001,
      "Jak": 9002,
      "iat": 9003,
      "pkÄĻ": 9004,
      "Ġprzedzi": 9005,
      "ĠstanÄħÄĩ": 9006,
      "Ġchwilami": 9007,
      "nikowi": 9008,
      "ĠKobieta": 9009,
      "czÃ³w": 9010,
      "ĠudaÄĩ": 9011,
      "ĠNieraz": 9012,
      "Ġzawsty": 9013,
      "ĠÅļwie": 9014,
      "Ġcyga": 9015,
      "Ġschody": 9016,
      "ĠAj": 9017,
      "ĠwidzÄħ": 9018,
      "Ġobce": 9019,
      "ĠsiadÅĤ": 9020,
      "Ġrezu": 9021,
      "Ġrodzice": 9022,
      "Ġbrzmi": 9023,
      "Ġzwia": 9024,
      "Å¼eÅĦ": 9025,
      "ĠTÅĤu": 9026,
      "Ġruchy": 9027,
      "Ġwspar": 9028,
      "Ġwielkimi": 9029,
      "Ġbruta": 9030,
      "brz": 9031,
      "ĠmÄĻki": 9032,
      "Ġtruci": 9033,
      "Ġwidzimy": 9034,
      "ĠWÅĤady": 9035,
      "Ġkomnaty": 9036,
      "Ġzwierciad": 9037,
      "Ġklasztor": 9038,
      "wieniu": 9039,
      "Ġtowarzysze": 9040,
      "braÅĤem": 9041,
      "iera": 9042,
      "Ġinten": 9043,
      "kÅĤÄħ": 9044,
      "ĠUsÅĤy": 9045,
      "ĠoparÅĤ": 9046,
      "Ġmedy": 9047,
      "ĠciekawoÅĽÄĩ": 9048,
      "Ġelektry": 9049,
      "ĠKsiÄħdz": 9050,
      "ĠwyÅĤo": 9051,
      "ĠliczyÄĩ": 9052,
      "Ġzakrzy": 9053,
      "Ġdziwna": 9054,
      "Ġzdziwiony": 9055,
      "ĠÅºrÃ³dÅĤa": 9056,
      "uda": 9057,
      "ĠmgÅĤy": 9058,
      "ĠbrÄħ": 9059,
      "Ġuja": 9060,
      "Ġwyczy": 9061,
      "Ġmachi": 9062,
      "ĠsÅĤuga": 9063,
      "Ġsprawia": 9064,
      "ĠprowadziÅĤ": 9065,
      "ĠpojechaÅĤ": 9066,
      "gda": 9067,
      "usta": 9068,
      "ĠMia": 9069,
      "dol": 9070,
      "ĠEmi": 9071,
      "ĠÅĽwiatu": 9072,
      "ĠKoz": 9073,
      "Ġzgodnie": 9074,
      "ĠokazaÅĤo": 9075,
      "Ġsympat": 9076,
      "nkami": 9077,
      "ĠX": 9078,
      "Ġmile": 9079,
      "obÃ³j": 9080,
      "Ġprawem": 9081,
      "Ġszyby": 9082,
      "dliwie": 9083,
      "Ġwzruszenia": 9084,
      "ĠniektÃ³rzy": 9085,
      "ĠwzgÃ³rza": 9086,
      "ĠokazaÅĤ": 9087,
      "ĠCaÅĤe": 9088,
      "ĠMacie": 9089,
      "ĠchÅĤopcze": 9090,
      "ĠwÅĤosach": 9091,
      "Ġludzki": 9092,
      "ĠdoÅĽwiadczenia": 9093,
      "Ġkoz": 9094,
      "Ġmieczem": 9095,
      "Ġpokrzy": 9096,
      "ĠtrwaÅĤo": 9097,
      "ĠscenÄĻ": 9098,
      "ĠbÃ³g": 9099,
      "ĠZako": 9100,
      "atÄħ": 9101,
      "ĠwielmoÅ¼": 9102,
      "ĠPrzyja": 9103,
      "ĠkÄħpie": 9104,
      "ĠIstotnie": 9105,
      "ĠposÅĤ": 9106,
      "liwej": 9107,
      "Ġpad": 9108,
      "enu": 9109,
      "ĠzdolnoÅĽci": 9110,
      "ryzon": 9111,
      "ĠniewyraÅº": 9112,
      "Ġzadowolony": 9113,
      "ĠmaÅĤÅ¼eÅĦstwo": 9114,
      "Ġwuja": 9115,
      "ĠtreÅĽÄĩ": 9116,
      "ĠcaÅĤoÅĽÄĩ": 9117,
      "gii": 9118,
      "ĠÅĤadna": 9119,
      "ĠFer": 9120,
      "ĠsÅĤyszaÅĤa": 9121,
      "Ġ12": 9122,
      "towany": 9123,
      "ĠgÅĤÄĻboki": 9124,
      "ĠjÄĻzyku": 9125,
      "ĠpoÅĤowÄĻ": 9126,
      "gÃ³r": 9127,
      "ĠwciÄħg": 9128,
      "Ġczynienia": 9129,
      "Ġbratem": 9130,
      "ĠbiegÅĤ": 9131,
      "ĠEli": 9132,
      "ĠBasia": 9133,
      "Ġhiszpa": 9134,
      "ĠhaÅĤas": 9135,
      "Ġpoleg": 9136,
      "Ġwah": 9137,
      "ĠSzo": 9138,
      "Ġcywili": 9139,
      "Ġrycerze": 9140,
      "Ġosobie": 9141,
      "ĠmÅĤodoÅĽÄĩ": 9142,
      "ĠzaszÅĤo": 9143,
      "rzywszy": 9144,
      "Ġkoszy": 9145,
      "ĠSal": 9146,
      "ĠTobie": 9147,
      "onem": 9148,
      "ĠbrodÄĻ": 9149,
      "ĠradoÅĽnie": 9150,
      "fryd": 9151,
      "AR": 9152,
      "Ġpsu": 9153,
      "Ġunika": 9154,
      "dziny": 9155,
      "ĠdziÄĻk": 9156,
      "ĠDar": 9157,
      "Ġwidno": 9158,
      "nÄĻliÅĽmy": 9159,
      "Ġnajpo": 9160,
      "ĠzgieÅĤ": 9161,
      "Ġkli": 9162,
      "biec": 9163,
      "ĠciÄĻÅ¼kÄħ": 9164,
[...]
